<pad>	0
<unk>	0
<s>	0
</s>	0
[SYSTEM]	0
[USER]	0
[ASSISTANT]	0
[SEP]	0
<0x00>	0
<0x01>	0
<0x02>	0
<0x03>	0
<0x04>	0
<0x05>	0
<0x06>	0
<0x07>	0
<0x08>	0
<0x09>	0
<0x0A>	0
<0x0B>	0
<0x0C>	0
<0x0D>	0
<0x0E>	0
<0x0F>	0
<0x10>	0
<0x11>	0
<0x12>	0
<0x13>	0
<0x14>	0
<0x15>	0
<0x16>	0
<0x17>	0
<0x18>	0
<0x19>	0
<0x1A>	0
<0x1B>	0
<0x1C>	0
<0x1D>	0
<0x1E>	0
<0x1F>	0
<0x20>	0
<0x21>	0
<0x22>	0
<0x23>	0
<0x24>	0
<0x25>	0
<0x26>	0
<0x27>	0
<0x28>	0
<0x29>	0
<0x2A>	0
<0x2B>	0
<0x2C>	0
<0x2D>	0
<0x2E>	0
<0x2F>	0
<0x30>	0
<0x31>	0
<0x32>	0
<0x33>	0
<0x34>	0
<0x35>	0
<0x36>	0
<0x37>	0
<0x38>	0
<0x39>	0
<0x3A>	0
<0x3B>	0
<0x3C>	0
<0x3D>	0
<0x3E>	0
<0x3F>	0
<0x40>	0
<0x41>	0
<0x42>	0
<0x43>	0
<0x44>	0
<0x45>	0
<0x46>	0
<0x47>	0
<0x48>	0
<0x49>	0
<0x4A>	0
<0x4B>	0
<0x4C>	0
<0x4D>	0
<0x4E>	0
<0x4F>	0
<0x50>	0
<0x51>	0
<0x52>	0
<0x53>	0
<0x54>	0
<0x55>	0
<0x56>	0
<0x57>	0
<0x58>	0
<0x59>	0
<0x5A>	0
<0x5B>	0
<0x5C>	0
<0x5D>	0
<0x5E>	0
<0x5F>	0
<0x60>	0
<0x61>	0
<0x62>	0
<0x63>	0
<0x64>	0
<0x65>	0
<0x66>	0
<0x67>	0
<0x68>	0
<0x69>	0
<0x6A>	0
<0x6B>	0
<0x6C>	0
<0x6D>	0
<0x6E>	0
<0x6F>	0
<0x70>	0
<0x71>	0
<0x72>	0
<0x73>	0
<0x74>	0
<0x75>	0
<0x76>	0
<0x77>	0
<0x78>	0
<0x79>	0
<0x7A>	0
<0x7B>	0
<0x7C>	0
<0x7D>	0
<0x7E>	0
<0x7F>	0
<0x80>	0
<0x81>	0
<0x82>	0
<0x83>	0
<0x84>	0
<0x85>	0
<0x86>	0
<0x87>	0
<0x88>	0
<0x89>	0
<0x8A>	0
<0x8B>	0
<0x8C>	0
<0x8D>	0
<0x8E>	0
<0x8F>	0
<0x90>	0
<0x91>	0
<0x92>	0
<0x93>	0
<0x94>	0
<0x95>	0
<0x96>	0
<0x97>	0
<0x98>	0
<0x99>	0
<0x9A>	0
<0x9B>	0
<0x9C>	0
<0x9D>	0
<0x9E>	0
<0x9F>	0
<0xA0>	0
<0xA1>	0
<0xA2>	0
<0xA3>	0
<0xA4>	0
<0xA5>	0
<0xA6>	0
<0xA7>	0
<0xA8>	0
<0xA9>	0
<0xAA>	0
<0xAB>	0
<0xAC>	0
<0xAD>	0
<0xAE>	0
<0xAF>	0
<0xB0>	0
<0xB1>	0
<0xB2>	0
<0xB3>	0
<0xB4>	0
<0xB5>	0
<0xB6>	0
<0xB7>	0
<0xB8>	0
<0xB9>	0
<0xBA>	0
<0xBB>	0
<0xBC>	0
<0xBD>	0
<0xBE>	0
<0xBF>	0
<0xC0>	0
<0xC1>	0
<0xC2>	0
<0xC3>	0
<0xC4>	0
<0xC5>	0
<0xC6>	0
<0xC7>	0
<0xC8>	0
<0xC9>	0
<0xCA>	0
<0xCB>	0
<0xCC>	0
<0xCD>	0
<0xCE>	0
<0xCF>	0
<0xD0>	0
<0xD1>	0
<0xD2>	0
<0xD3>	0
<0xD4>	0
<0xD5>	0
<0xD6>	0
<0xD7>	0
<0xD8>	0
<0xD9>	0
<0xDA>	0
<0xDB>	0
<0xDC>	0
<0xDD>	0
<0xDE>	0
<0xDF>	0
<0xE0>	0
<0xE1>	0
<0xE2>	0
<0xE3>	0
<0xE4>	0
<0xE5>	0
<0xE6>	0
<0xE7>	0
<0xE8>	0
<0xE9>	0
<0xEA>	0
<0xEB>	0
<0xEC>	0
<0xED>	0
<0xEE>	0
<0xEF>	0
<0xF0>	0
<0xF1>	0
<0xF2>	0
<0xF3>	0
<0xF4>	0
<0xF5>	0
<0xF6>	0
<0xF7>	0
<0xF8>	0
<0xF9>	0
<0xFA>	0
<0xFB>	0
<0xFC>	0
<0xFD>	0
<0xFE>	0
<0xFF>	0
ar	-0
an	-1
er	-2
in	-3
il	-4
en	-5
lar	-6
▁b	-7
ın	-8
ir	-9
al	-10
ak	-11
▁k	-12
▁y	-13
de	-14
da	-15
▁s	-16
ol	-17
ler	-18
on	-19
▁A	-20
ay	-21
as	-22
▁v	-23
et	-24
es	-25
▁t	-26
▁K	-27
▁1	-28
is	-29
el	-30
▁g	-31
un	-32
▁B	-33
ik	-34
at	-35
▁ve	-36
▁S	-37
ek	-38
ıl	-39
am	-40
ır	-41
or	-42
ur	-43
▁d	-44
▁T	-45
▁M	-46
▁2	-47
ad	-48
iy	-49
▁D	-50
▁m	-51
ul	-52
aş	-53
▁(	-54
▁bir	-55
▁19	-56
im	-57
ları	-58
▁f	-59
ür	-60
le	-61
ış	-62
it	-63
▁o	-64
▁20	-65
ında	-66
ed	-67
ün	-68
▁il	-69
em	-70
lı	-71
iş	-72
▁G	-73
▁ol	-74
▁E	-75
▁H	-76
ya	-77
lan	-78
us	-79
▁P	-80
leri	-81
▁C	-82
▁İ	-83
az	-84
ap	-85
▁F	-86
ut	-87
▁h	-88
ağ	-89
li	-90
▁Y	-91
cu	-92
▁ç	-93
ım	-94
iz	-95
inde	-96
um	-97
ah	-98
dan	-99
ey	-100
▁L	-101
▁O	-102
▁al	-103
ev	-104
▁R	-105
▁ö	-106
▁p	-107
üz	-108
▁yıl	-109
bol	-110
▁N	-111
esi	-112
ör	-113
ası	-114
oğ	-115
ilm	-116
ab	-117
om	-118
ine	-119
tı	-120
di	-121
af	-122
▁ş	-123
ist	-124
▁de	-125
dı	-126
lu	-127
ez	-128
utbol	-129
st	-130
la	-131
▁tar	-132
ık	-133
ayn	-134
ül	-135
▁futbol	-136
▁i	-137
üm	-138
ro	-139
den	-140
larak	-141
ük	-142
du	-143
ından	-144
▁201	-145
ça	-146
ic	-147
▁olarak	-148
▁da	-149
tir	-150
dir	-151
▁bağ	-152
▁futbolcu	-153
av	-154
▁yap	-155
te	-156
iler	-157
ok	-158
ac	-159
▁-	-160
uş	-161
▁200	-162
aynak	-163
ti	-164
▁ar	-165
os	-166
ürk	-167
ıs	-168
tır	-169
ki	-170
dır	-171
▁ile	-172
ön	-173
ih	-174
▁Kaynak	-175
▁iç	-176
▁baş	-177
▁Kaynakça	-178
▁r	-179
ını	-180
▁son	-181
▁Türk	-182
alı	-183
mış	-184
ini	-185
uz	-186
aki	-187
▁J	-188
▁n	-189
ta	-190
ğı	-191
▁doğ	-192
▁"	-193
ark	-194
▁Ş	-195
yun	-196
▁gör	-197
inin	-198
up	-199
isi	-200
man	-201
ği	-202
▁yılında	-203
▁V	-204
ma	-205
ra	-206
len	-207
ce	-208
▁an	-209
op	-210
eç	-211
adı	-212
eş	-213
▁I	-214
ına	-215
ca	-216
▁yer	-217
▁kar	-218
mak	-219
▁U	-220
lik	-221
00	-222
eh	-223
erk	-224
),	-225
yon	-226
iye	-227
ip	-228
ans	-229
▁a	-230
ers	-231
19	-232
öl	-233
▁W	-234
iştir	-235
eri	-236
▁futbolcuları	-237
öy	-238
daki	-239
▁in	-240
▁An	-241
▁Am	-242
let	-243
▁Al	-244
iv	-245
ib	-246
üy	-247
▁taraf	-248
he	-249
lam	-250
ekt	-251
▁bağlan	-252
tad	-253
ig	-254
▁199	-255
▁olan	-256
▁bul	-257
tılar	-258
▁Ç	-259
▁Dış	-260
leş	-261
▁Ö	-262
▁tarafından	-263
ız	-264
▁et	-265
▁film	-266
▁ed	-267
ov	-268
ot	-269
▁Ar	-270
▁için	-271
▁|	-272
▁bağlantılar	-273
ter	-274
erik	-275
umlu	-276
ec	-277
tadır	-278
▁kur	-279
anı	-280
▁3	-281
lık	-282
ının	-283
mıştır	-284
tur	-285
▁bulun	-286
re	-287
▁Amerik	-288
▁c	-289
▁doğumlu	-290
asında	-291
▁tarih	-292
▁oldu	-293
art	-294
▁kul	-295
akım	-296
eb	-297
uk	-298
▁oyun	-299
ub	-300
anlar	-301
▁Bir	-302
▁bu	-303
nin	-304
▁kad	-305
▁198	-306
nın	-307
▁gel	-308
▁is	-309
yla	-310
eler	-311
▁en	-312
aç	-313
20	-314
ing	-315
üş	-316
aya	-317
ci	-318
ğu	-319
▁sonra	-320
ayan	-321
ha	-322
▁Ü	-323
▁z	-324
▁18	-325
gil	-326
cı	-327
▁ön	-328
ri	-329
▁ik	-330
eni	-331
▁Bu	-332
▁takım	-333
▁or	-334
ch	-335
▁sah	-336
inden	-337
▁doğumlular	-338
▁yaz	-339
arkı	-340
erkez	-341
edir	-342
ent	-343
ayı	-344
ması	-345
▁böl	-346
ag	-347
og	-348
▁(19	-349
▁bil	-350
me	-351
▁197	-352
por	-353
çe	-354
arı	-355
uy	-356
maktadır	-357
unda	-358
ilen	-359
▁ver	-360
▁Ay	-361
tan	-362
iyon	-363
▁İn	-364
üf	-365
▁ad	-366
▁4	-367
▁ilk	-368
▁kullan	-369
▁yay	-370
uştur	-371
▁Fr	-372
rı	-373
▁yön	-374
raf	-375
rup	-376
▁yaş	-377
if	-378
▁İs	-379
ne	-380
ada	-381
▁bel	-382
▁yüz	-383
cak	-384
amp	-385
id	-386
▁dön	-387
▁l	-388
ılan	-389
▁mil	-390
▁geç	-391
▁Av	-392
▁ay	-393
▁gö	-394
ektedir	-395
▁Kar	-396
esine	-397
üç	-398
▁çık	-399
▁merkez	-400
usu	-401
▁yar	-402
deki	-403
ıldı	-404
tr	-405
ivers	-406
▁196	-407
esinde	-408
üyük	-409
ilir	-410
▁Türkiye	-411
▁köy	-412
▁Er	-413
iyet	-414
men	-415
▁kurul	-416
iyat	-417
▁kon	-418
istan	-419
dül	-420
▁üz	-421
▁sür	-422
ısı	-423
ili	-424
▁Z	-425
▁bağlı	-426
ef	-427
dür	-428
ların	-429
ildi	-430
▁tek	-431
itesi	-432
▁5	-433
▁üzer	-434
▁En	-435
▁es	-436
▁el	-437
▁ins	-438
▁kal	-439
üs	-440
▁as	-441
ibi	-442
dur	-443
▁uz	-444
ehir	-445
ram	-446
etç	-447
iyle	-448
▁arasında	-449
▁olm	-450
▁çal	-451
ade	-452
ken	-453
ket	-454
eli	-455
nivers	-456
larında	-457
ileri	-458
0'	-459
▁İst	-460
▁at	-461
sel	-462
▁ilç	-463
tal	-464
▁Dev	-465
oy	-466
▁şarkı	-467
der	-468
▁Ch	-469
ara	-470
ob	-471
▁kat	-472
▁kaz	-473
büm	-474
▁gen	-475
▁ise	-476
▁daha	-477
ren	-478
ia	-479
anlı	-480
▁pro	-481
liği	-482
rıca	-483
miştir	-484
ion	-485
▁görev	-486
ünya	-487
laş	-488
iyas	-489
▁gün	-490
▁of	-491
200	-492
▁Or	-493
lü	-494
▁çalış	-495
▁adı	-496
ge	-497
▁sır	-498
yıl	-499
km	-500
ğer	-501
ep	-502
▁6	-503
yan	-504
▁Yaş	-505
unu	-506
ladı	-507
▁The	-508
▁alan	-509
▁oyuncu	-510
yn	-511
eden	-512
▁iş	-513
▁İngil	-514
oz	-515
avaş	-516
▁veya	-517
üt	-518
mektedir	-519
▁futbolcular	-520
öz	-521
▁ger	-522
ard	-523
▁yüzyıl	-524
▁sahip	-525
asyon	-526
met	-527
▁e	-528
end	-529
▁Amerikalı	-530
bul	-531
▁195	-532
▁dev	-533
larda	-534
▁Ünivers	-535
▁yönet	-536
▁top	-537
dü	-538
ran	-539
▁Frans	-540
ampiyon	-541
▁kadar	-542
uv	-543
ahal	-544
||	-545
est	-546
▁on	-547
▁Lig	-548
▁Tar	-549
nde	-550
▁diz	-551
▁Devlet	-552
oj	-553
anbul	-554
ilmiştir	-555
anat	-556
od	-557
▁tarihinde	-558
▁öl	-559
▁aç	-560
▁gibi	-561
▁Ak	-562
nda	-563
imi	-564
mi	-565
▁kazan	-566
▁Kon	-567
han	-568
inci	-569
ezon	-570
tür	-571
ılı	-572
ust	-573
▁İstanbul	-574
▁Baş	-575
üfus	-576
▁dönem	-577
▁müz	-578
▁insanlar	-579
▁büyük	-580
üp	-581
▁albüm	-582
zel	-583
aman	-584
gi	-585
ağı	-586
▁7	-587
▁karş	-588
▁194	-589
ünde	-590
▁seç	-591
▁Birleş	-592
▁Alman	-593
▁İl	-594
na	-595
▁Dünya	-596
▁say	-597
atı	-598
▁Ayrıca	-599
▁tan	-600
▁çok	-601
uç	-602
▁ak	-603
▁Gen	-604
▁St	-605
ant	-606
si	-607
▁kiş	-608
ow	-609
▁yak	-610
▁Gün	-611
▁Ödül	-612
urb	-613
unun	-614
▁var	-615
lem	-616
eye	-617
▁Br	-618
▁iki	-619
▁öğ	-620
alık	-621
▁hal	-622
ster	-623
lî	-624
▁Birleşik	-625
▁göre	-626
inal	-627
▁Le	-628
▁düz	-629
▁aldı	-630
▁–	-631
▁filmler	-632
ide	-633
▁ek	-634
▁bak	-635
▁par	-636
oloj	-637
▁yayın	-638
▁Ol	-639
ama	-640
▁sezon	-641
▁ilçesine	-642
▁kadın	-643
lerin	-644
▁değ	-645
▁alt	-646
▁Amerika	-647
▁yük	-648
ye	-649
ika	-650
miş	-651
▁oyn	-652
▁Os	-653
▁siyas	-654
▁Yaşayan	-655
▁8	-656
▁Tarih	-657
▁ölen	-658
▁mahal	-659
▁202	-660
▁bulunan	-661
▁(1	-662
▁As	-663
▁Ek	-664
▁tel	-665
▁Üniversitesi	-666
ret	-667
▁Mar	-668
▁üy	-669
▁oluş	-670
ten	-671
▁ev	-672
iç	-673
uh	-674
▁İngiliz	-675
eg	-676
rupa	-677
ındaki	-678
iğer	-679
lus	-680
▁Bel	-681
ımı	-682
ral	-683
▁başk	-684
▁erk	-685
▁9	-686
201	-687
ast	-688
▁ölenler	-689
▁mad	-690
▁yaptı	-691
▁uy	-692
▁Ey	-693
cü	-694
▁Par	-695
▁the	-696
▁Avrupa	-697
mas	-698
▁15	-699
-1	-700
▁Oyun	-701
▁bas	-702
▁17	-703
imp	-704
ort	-705
▁Film	-706
▁der	-707
▁ür	-708
▁Pro	-709
ekil	-710
▁birlik	-711
and	-712
ue	-713
▁ayn	-714
nik	-715
▁Mart	-716
eleri	-717
erb	-718
▁Rus	-719
lara	-720
edi	-721
mek	-722
ck	-723
etçi	-724
uzey	-725
▁Cum	-726
▁bölg	-727
pan	-728
▁193	-729
oğraf	-730
▁tür	-731
▁Kur	-732
▁list	-733
▁ül	-734
▁mahalle	-735
▁taş	-736
▁erkek	-737
▁Ağ	-738
▁kap	-739
ang	-740
yalı	-741
▁tam	-742
imler	-743
ew	-744
hur	-745
ede	-746
ess	-747
una	-748
▁göster	-749
larını	-750
▁gir	-751
liğ	-752
▁zaman	-753
▁ul	-754
▁192	-755
▁10	-756
▁Mil	-757
▁millî	-758
sek	-759
ulu	-760
▁Osman	-761
▁Kup	-762
▁olduğu	-763
▁yeni	-764
▁(200	-765
▁Tem	-766
▁Köy	-767
alet	-768
▁kom	-769
olu	-770
▁ist	-771
▁şehir	-772
▁Bil	-773
▁eski	-774
üst	-775
lanan	-776
eviz	-777
arak	-778
irket	-779
▁tem	-780
ou	-781
▁Şampiyon	-782
▁Ulus	-783
azı	-784
ğit	-785
="	-786
lerde	-787
-19	-788
▁bölüm	-789
▁16	-790
ana	-791
▁Kas	-792
ert	-793
▁for	-794
çek	-795
ina	-796
▁den	-797
ley	-798
▁May	-799
▁gurb	-800
▁aynı	-801
▁özel	-802
▁hay	-803
ehr	-804
▁birlikte	-805
ari	-806
ektör	-807
▁düzen	-808
▁üç	-809
▁filmleri	-810
▁it	-811
rub	-812
▁adlı	-813
acı	-814
ocu	-815
lat	-816
▁In	-817
▁ada	-818
▁Devletleri	-819
evizyon	-820
▁kıs	-821
erek	-822
▁Haz	-823
luk	-824
idir	-825
sa	-826
▁etti	-827
son	-828
▁met	-829
▁maç	-830
▁başladı	-831
▁kariy	-832
ht	-833
▁1.	-834
nun	-835
▁bilin	-836
iran	-837
enler	-838
▁kay	-839
▁diğer	-840
▁Savaş	-841
▁yarış	-842
▁çek	-843
▁düş	-844
▁21	-845
onya	-846
▁genel	-847
▁12	-848
huriyet	-849
ılmıştır	-850
ıy	-851
▁Af	-852
▁takımı	-853
larının	-854
▁At	-855
2'	-856
rak	-857
▁öğren	-858
▁sağ	-859
▁w	-860
▁Pr	-861
ılır	-862
▁hak	-863
larına	-864
▁ülk	-865
▁Kupası	-866
indeki	-867
ation	-868
lığı	-869
8'	-870
▁Ödülü	-871
1'	-872
of	-873
ka	-874
enin	-875
▁uzak	-876
▁Es	-877
▁Osmanlı	-878
anları	-879
yi	-880
ug	-881
▁Jap	-882
▁Ocak	-883
▁sanat	-884
maya	-885
ınız	-886
▁Mayıs	-887
ilmiş	-888
▁li	-889
▁merkezine	-890
▁El	-891
▁Cumhuriyet	-892
lül	-893
ros	-894
oh	-895
arası	-896
▁Olimp	-897
▁kurulan	-898
▁neden	-899
▁Bak	-900
▁Böl	-901
muz	-902
▁Nis	-903
▁Son	-904
▁res	-905
ıştır	-906
▁İtal	-907
arat	-908
▁üret	-909
leştir	-910
anlığı	-911
ich	-912
▁Tr	-913
▁Kasım	-914
lerinde	-915
çı	-916
ork	-917
van	-918
landır	-919
▁kab	-920
se	-921
▁Res	-922
diği	-923
▁Hal	-924
▁Kal	-925
inem	-926
▁yazar	-927
ograf	-928
vet	-929
▁Haziran	-930
▁kö	-931
7'	-932
eyi	-933
▁gerçek	-934
▁şirket	-935
land	-936
▁:	-937
▁bakınız	-938
ilik	-939
6'	-940
istem	-941
▁.	-942
lerini	-943
▁tamam	-944
9'	-945
▁ort	-946
urg	-947
▁Fransız	-948
5'	-949
▁dir	-950
▁Rom	-951
▁Sh	-952
▁Eylül	-953
▁Nisan	-954
ost	-955
▁14	-956
▁Ekim	-957
▁Olimpiyat	-958
▁her	-959
imleri	-960
▁önce	-961
tü	-962
ord	-963
las	-964
▁Temmuz	-965
▁ser	-966
▁belir	-967
▁etk	-968
▁mü	-969
likle	-970
▁olmuştur	-971
ud	-972
landı	-973
▁Kad	-974
▁ilinin	-975
▁2010	-976
ustos	-977
oğu	-978
alya	-979
▁har	-980
▁13	-981
▁tur	-982
abilir	-983
▁yılı	-984
▁içer	-985
▁Tarihçe	-986
urum	-987
▁11	-988
▁and	-989
eşit	-990
eks	-991
üb	-992
▁||	-993
onom	-994
▁Kom	-995
▁Nüfus	-996
▁itib	-997
▁spor	-998
▁Ağustos	-999
3'	-1000
▁Genel	-1001
▁ok	-1002
▁televizyon	-1003
▁am	-1004
orm	-1005
▁oluştur	-1006
▁kit	-1007
ie	-1008
▁üst	-1009
adan	-1010
luğu	-1011
▁önem	-1012
▁Güney	-1013
▁Kat	-1014
▁ya	-1015
4'	-1016
ünü	-1017
▁Şub	-1018
ile	-1019
▁gelen	-1020
aha	-1021
▁Ank	-1022
▁II	-1023
▁Az	-1024
▁söz	-1025
ker	-1026
mp	-1027
▁Aralık	-1028
▁FC	-1029
▁grup	-1030
ali	-1031
lararası	-1032
▁Fransa	-1033
▁müzik	-1034
atik	-1035
esinin	-1036
▁ağ	-1037
yo	-1038
ton	-1039
larından	-1040
▁bo	-1041
ell	-1042
▁New	-1043
▁gurbetçi	-1044
▁Kan	-1045
ens	-1046
ron	-1047
▁yılları	-1048
ılık	-1049
endi	-1050
lendir	-1051
müş	-1052
can	-1053
▁rol	-1054
▁Kral	-1055
▁yüksek	-1056
▁yapılan	-1057
▁2020	-1058
etçiler	-1059
ite	-1060
▁Başk	-1061
▁karşı	-1062
fes	-1063
all	-1064
▁uzaklık	-1065
ğitim	-1066
▁Har	-1067
▁Öz	-1068
▁%	-1069
▁çev	-1070
▁çocu	-1071
▁Şubat	-1072
unan	-1073
▁Pol	-1074
▁(199	-1075
▁aş	-1076
▁İlk	-1077
▁Yar	-1078
our	-1079
asar	-1080
uc	-1081
▁2.	-1082
lay	-1083
mesi	-1084
çi	-1085
▁191	-1086
▁nüfus	-1087
muştur	-1088
2)	-1089
▁yol	-1090
▁sistem	-1091
üçük	-1092
▁Man	-1093
▁olup	-1094
lardan	-1095
▁Bur	-1096
mir	-1097
▁Ankara	-1098
▁kez	-1099
▁Coğraf	-1100
▁Kor	-1101
ediye	-1102
hil	-1103
arator	-1104
ümü	-1105
ank	-1106
letv	-1107
anan	-1108
int	-1109
tiv	-1110
▁açık	-1111
▁|-	-1112
▁mo	-1113
üfusu	-1114
lama	-1115
▁Ab	-1116
▁Part	-1117
oc	-1118
tor	-1119
▁oyuncuları	-1120
erg	-1121
ova	-1122
ru	-1123
▁yerleş	-1124
▁Alt	-1125
ılmış	-1126
lerinin	-1127
inema	-1128
lerinden	-1129
▁teknik	-1130
▁vardır	-1131
net	-1132
▁Savaşı	-1133
gram	-1134
ğü	-1135
azet	-1136
▁Müz	-1137
▁(201	-1138
▁2012	-1139
cular	-1140
▁Gür	-1141
tik	-1142
▁AB	-1143
▁Dem	-1144
sı	-1145
ime	-1146
dığı	-1147
▁Ev	-1148
▁üzere	-1149
▁Gal	-1150
ordu	-1151
ınır	-1152
th	-1153
▁Şarkı	-1154
▁final	-1155
▁fark	-1156
▁Th	-1157
iyi	-1158
▁Tek	-1159
▁grub	-1160
▁bit	-1161
▁kend	-1162
çok	-1163
sız	-1164
▁önemli	-1165
ucu	-1166
▁Coğrafya	-1167
sil	-1168
▁şarkıcı	-1169
▁Daha	-1170
üne	-1171
FA	-1172
dından	-1173
ideo	-1174
iya	-1175
asına	-1176
ind	-1177
▁Yaz	-1178
▁rom	-1179
▁dış	-1180
▁tarihi	-1181
▁direktör	-1182
eki	-1183
ketbol	-1184
▁savaş	-1185
▁yan	-1186
isinde	-1187
rik	-1188
elik	-1189
ni	-1190
▁şehr	-1191
fer	-1192
▁Hol	-1193
ici	-1194
ale	-1195
acak	-1196
▁İspan	-1197
▁ayr	-1198
▁şekil	-1199
..	-1200
▁2009	-1201
gan	-1202
▁olmak	-1203
▁ancak	-1204
ign	-1205
ğını	-1206
▁sat	-1207
▁anlam	-1208
yal	-1209
bir	-1210
▁nüfusu	-1211
esini	-1212
ök	-1213
eti	-1214
lin	-1215
▁Fak	-1216
▁yet	-1217
▁Avus	-1218
isyon	-1219
).	-1220
▁2008	-1221
▁Büyük	-1222
inc	-1223
eya	-1224
üsü	-1225
ımcı	-1226
▁2011	-1227
▁hem	-1228
▁ikinci	-1229
▁bulunmaktadır	-1230
▁Almanya	-1231
lis	-1232
▁yüzyılda	-1233
▁Den	-1234
▁ey	-1235
layan	-1236
dar	-1237
era	-1238
pr	-1239
aştır	-1240
▁uzaklıktadır	-1241
▁San	-1242
ğini	-1243
orum	-1244
ire	-1245
lo	-1246
▁Şampiyonası	-1247
000	-1248
▁2006	-1249
▁karak	-1250
▁uzun	-1251
▁Kul	-1252
ültür	-1253
▁Ok	-1254
lenen	-1255
▁dil	-1256
▁uyg	-1257
▁La	-1258
▁ün	-1259
▁ter	-1260
ong	-1261
tar	-1262
fa	-1263
▁ABD	-1264
▁devam	-1265
▁im	-1266
izm	-1267
enz	-1268
▁kan	-1269
ague	-1270
ins	-1271
▁mez	-1272
tu	-1273
3)	-1274
▁ilgil	-1275
işk	-1276
▁çeşit	-1277
ond	-1278
▁Ad	-1279
▁az	-1280
oun	-1281
aktadır	-1282
▁Orta	-1283
▁Yeni	-1284
elen	-1285
lük	-1286
oloji	-1287
▁Hay	-1288
▁faz	-1289
aat	-1290
▁milletv	-1291
▁Tur	-1292
lere	-1293
yet	-1294
▁Eur	-1295
izmet	-1296
▁İyi	-1297
▁Kuzey	-1298
▁Ada	-1299
▁devlet	-1300
▁Bar	-1301
ack	-1302
▁hük	-1303
▁içinde	-1304
GC	-1305
ian	-1306
ry	-1307
▁sen	-1308
▁çalışma	-1309
0,	-1310
üc	-1311
▁üzerine	-1312
▁sonr	-1313
▁st	-1314
▁'	-1315
üdür	-1316
▁sal	-1317
▁değiş	-1318
▁2007	-1319
▁yaşam	-1320
▁Çin	-1321
anın	-1322
lak	-1323
▁X	-1324
sal	-1325
ıt	-1326
ğunu	-1327
▁ardından	-1328
▁birçok	-1329
4)	-1330
▁Wil	-1331
ij	-1332
▁ör	-1333
5)	-1334
▁Car	-1335
▁yaklaş	-1336
▁Yer	-1337
▁ili	-1338
ımc	-1339
▁Yunan	-1340
rist	-1341
gel	-1342
ece	-1343
ga	-1344
▁ödül	-1345
leme	-1346
ısında	-1347
deş	-1348
orn	-1349
ümüz	-1350
▁tüm	-1351
ült	-1352
▁şampiyon	-1353
iyatro	-1354
veç	-1355
oğlu	-1356
6)	-1357
8)	-1358
▁öğrenim	-1359
eme	-1360
▁bulunur	-1361
▁durum	-1362
▁Amerikan	-1363
aj	-1364
mparator	-1365
aret	-1366
ity	-1367
yı	-1368
1)	-1369
▁hav	-1370
▁Partisi	-1371
▁kız	-1372
▁İmparator	-1373
▁2013	-1374
io	-1375
▁dör	-1376
kı	-1377
ediy	-1378
▁tes	-1379
▁program	-1380
▁League	-1381
▁Han	-1382
▁yayım	-1383
br	-1384
▁ot	-1385
▁Cumhuriyeti	-1386
iss	-1387
▁Kadın	-1388
▁ulus	-1389
▁20.	-1390
etir	-1391
▁eden	-1392
eder	-1393
üncü	-1394
▁bazı	-1395
▁De	-1396
▁2014	-1397
▁listesi	-1398
ekler	-1399
▁3.	-1400
▁çıkar	-1401
muş	-1402
aber	-1403
BM	-1404
ehri	-1405
ebilir	-1406
▁kazandı	-1407
▁kabul	-1408
gün	-1409
▁Top	-1410
▁alın	-1411
emi	-1412
osu	-1413
▁çocuk	-1414
▁getir	-1415
▁sırasında	-1416
7)	-1417
del	-1418
▁tr	-1419
eor	-1420
▁kuzey	-1421
▁25	-1422
▁beri	-1423
ayıt	-1424
▁karakter	-1425
▁git	-1426
▁yard	-1427
spor	-1428
▁Dan	-1429
aları	-1430
det	-1431
▁şekilde	-1432
▁Mad	-1433
▁Mac	-1434
▁tab	-1435
▁2015	-1436
▁kişi	-1437
▁biri	-1438
▁belde	-1439
sh	-1440
▁eğitim	-1441
▁2005	-1442
▁boyun	-1443
ohn	-1444
▁fazla	-1445
ulan	-1446
enk	-1447
müştür	-1448
amb	-1449
▁üzerinde	-1450
▁eyalet	-1451
duğu	-1452
▁yakın	-1453
▁190	-1454
▁uç	-1455
▁İz	-1456
üv	-1457
▁önc	-1458
ecek	-1459
ünün	-1460
iydi	-1461
▁kol	-1462
alan	-1463
ea	-1464
lerine	-1465
ografi	-1466
▁adıyla	-1467
▁Rusya	-1468
adem	-1469
▁Mal	-1470
ision	-1471
yonel	-1472
▁tip	-1473
▁30	-1474
fesyonel	-1475
nı	-1476
tiği	-1477
▁eş	-1478
▁gal	-1479
ice	-1480
▁2004	-1481
▁gazet	-1482
▁geliştir	-1483
▁2000	-1484
||0	-1485
BMM	-1486
▁küçük	-1487
▁Yarış	-1488
▁Hav	-1489
▁güney	-1490
▁Her	-1491
▁kil	-1492
▁yaşında	-1493
▁sinema	-1494
▁TBMM	-1495
▁dest	-1496
tere	-1497
▁ilçe	-1498
bak	-1499
▁ilgili	-1500
▁su	-1501
▁edildi	-1502
▁Ligi	-1503
tif	-1504
▁2016	-1505
▁basketbol	-1506
abası	-1507
▁İk	-1508
▁0	-1509
▁nedeniyle	-1510
▁Sp	-1511
▁York	-1512
▁ulaş	-1513
▁dol	-1514
▁Bas	-1515
▁sınır	-1516
osyal	-1517
▁kariyer	-1518
▁Yay	-1519
▁ses	-1520
▁gerek	-1521
▁inş	-1522
▁almaktadır	-1523
▁başar	-1524
▁pol	-1525
▁&	-1526
▁eser	-1527
▁iz	-1528
0)	-1529
▁iyi	-1530
▁Sov	-1531
▁hizmet	-1532
▁Birliği	-1533
▁çeşitli	-1534
▁farklı	-1535
oş	-1536
▁Der	-1537
eng	-1538
▁Fakült	-1539
▁almıştır	-1540
▁Sa	-1541
les	-1542
▁kent	-1543
ars	-1544
rika	-1545
qu	-1546
▁Mon	-1547
▁Sam	-1548
▁kayıt	-1549
▁temsil	-1550
▁John	-1551
yum	-1552
▁edilmiştir	-1553
ıldız	-1554
▁FI	-1555
▁26	-1556
▁yapı	-1557
▁kariyeri	-1558
landa	-1559
▁Bul	-1560
▁Muh	-1561
▁er	-1562
ıllı	-1563
ick	-1564
ift	-1565
▁yaklaşık	-1566
▁görenler	-1567
-2	-1568
9)	-1569
▁Ulusal	-1570
deb	-1571
▁tut	-1572
",	-1573
asyonu	-1574
▁dizi	-1575
▁ark	-1576
▁çıkış	-1577
▁sahipleri	-1578
▁toplam	-1579
ach	-1580
▁24	-1581
ilmektedir	-1582
▁/	-1583
lor	-1584
▁(198	-1585
▁Sovyet	-1586
meye	-1587
com	-1588
▁Port	-1589
▁İngiltere	-1590
üny	-1591
uluk	-1592
ly	-1593
▁yapımı	-1594
▁Bay	-1595
und	-1596
ekiz	-1597
▁Erk	-1598
▁keş	-1599
▁Merkez	-1600
▁Ber	-1601
▁ait	-1602
oğun	-1603
sk	-1604
▁geçir	-1605
▁23	-1606
▁oyunları	-1607
▁=	-1608
ith	-1609
▁futbolcudur	-1610
▁ail	-1611
▁22	-1612
▁zamanda	-1613
▁21.	-1614
ize	-1615
▁2018	-1616
▁tanım	-1617
san	-1618
▁İtalya	-1619
▁Sal	-1620
ary	-1621
▁video	-1622
▁tah	-1623
▁Ah	-1624
▁Bey	-1625
ver	-1626
▁Q	-1627
▁Futbol	-1628
ff	-1629
udi	-1630
▁bilg	-1631
▁And	-1632
▁siyasetçiler	-1633
▁görül	-1634
esel	-1635
-0	-1636
▁mak	-1637
▁2002	-1638
ıp	-1639
▁görün	-1640
lanmıştır	-1641
▁isim	-1642
▁Re	-1643
uvvet	-1644
▁merkezi	-1645
▁id	-1646
aşa	-1647
▁albümleri	-1648
ınıf	-1649
▁ilişk	-1650
ica	-1651
esinden	-1652
eyaz	-1653
asının	-1654
tep	-1655
▁Em	-1656
▁Un	-1657
▁İngilizce	-1658
adığı	-1659
amil	-1660
▁Deniz	-1661
▁Sanat	-1662
▁kullanıl	-1663
okr	-1664
▁köyleri	-1665
▁göz	-1666
anda	-1667
▁On	-1668
gar	-1669
▁bilim	-1670
▁bur	-1671
▁belediye	-1672
istik	-1673
▁söy	-1674
▁NGC	-1675
▁Sch	-1676
ate	-1677
▁Ma	-1678
▁Olimpiyatları	-1679
1,	-1680
▁asker	-1681
rom	-1682
▁sor	-1683
▁edilen	-1684
▁oğ	-1685
▁İş	-1686
her	-1687
per	-1688
▁bin	-1689
▁yeniden	-1690
undan	-1691
▁dağ	-1692
▁köydür	-1693
▁hayat	-1694
ise	-1695
▁yaptığı	-1696
▁yapmıştır	-1697
▁Ali	-1698
▁has	-1699
aba	-1700
asa	-1701
▁doğdu	-1702
▁Sır	-1703
▁Col	-1704
▁altı	-1705
▁2017	-1706
▁oyuncular	-1707
▁boyunca	-1708
▁Kır	-1709
▁öz	-1710
▁Özel	-1711
adece	-1712
▁kes	-1713
eral	-1714
▁itibarı	-1715
ünden	-1716
ılım	-1717
▁sayı	-1718
▁yönetmen	-1719
▁parç	-1720
▁Yıl	-1721
isy	-1722
▁üyesi	-1723
▁dahil	-1724
▁kitap	-1725
▁gol	-1726
gen	-1727
ukuk	-1728
▁kendi	-1729
▁kulüp	-1730
üler	-1731
ami	-1732
ts	-1733
▁Afrika	-1734
isk	-1735
eket	-1736
▁halk	-1737
lamıştır	-1738
▁çevr	-1739
▁oyunc	-1740
ışma	-1741
lerden	-1742
rar	-1743
air	-1744
larla	-1745
▁yüksel	-1746
▁Altın	-1747
▁gerçekleştir	-1748
▁Uluslararası	-1749
▁geçen	-1750
cade	-1751
▁Müzik	-1752
önet	-1753
▁Kol	-1754
▁tak	-1755
▁Met	-1756
▁tasar	-1757
▁yapan	-1758
▁dok	-1759
uan	-1760
▁Mo	-1761
▁2019	-1762
▁sanatçı	-1763
▁27	-1764
-200	-1765
▁Japon	-1766
▁yerleşim	-1767
▁Dav	-1768
▁189	-1769
lığ	-1770
oç	-1771
tığı	-1772
▁Japonya	-1773
▁web	-1774
cel	-1775
▁yılından	-1776
isinin	-1777
ons	-1778
ekli	-1779
▁kulüb	-1780
▁Roma	-1781
▁28	-1782
▁2003	-1783
▁sahiptir	-1784
▁güç	-1785
esiyle	-1786
iyor	-1787
▁Com	-1788
lav	-1789
ûmet	-1790
▁benz	-1791
asındaki	-1792
sun	-1793
▁hakk	-1794
▁orta	-1795
▁Ser	-1796
gı	-1797
▁giy	-1798
▁İtalyan	-1799
med	-1800
▁kaynak	-1801
▁muh	-1802
▁asıllı	-1803
erbay	-1804
▁Doğu	-1805
usunda	-1806
co	-1807
yol	-1808
▁Aş	-1809
ovision	-1810
urt	-1811
uğ	-1812
▁madde	-1813
▁üyeleri	-1814
atör	-1815
▁Mec	-1816
▁Eurovision	-1817
▁(18	-1818
▁sitesi	-1819
▁dört	-1820
▁Kaz	-1821
siyon	-1822
▁Tel	-1823
ft	-1824
▁süre	-1825
▁haz	-1826
▁Ed	-1827
▁doğru	-1828
▁katıldı	-1829
▁öğret	-1830
▁Gök	-1831
▁geri	-1832
▁Doğ	-1833
▁kültür	-1834
aren	-1835
▁trans	-1836
bi	-1837
▁Su	-1838
üper	-1839
ilerin	-1840
ish	-1841
ore	-1842
▁align	-1843
eyen	-1844
▁Per	-1845
▁hat	-1846
▁Sel	-1847
▁şark	-1848
▁He	-1849
▁kısa	-1850
rol	-1851
aban	-1852
▁şehirler	-1853
▁Azerbay	-1854
▁em	-1855
iel	-1856
▁olduğunu	-1857
▁keşf	-1858
ğin	-1859
▁Bal	-1860
ezil	-1861
▁Kız	-1862
▁ana	-1863
▁Ancak	-1864
▁madalya	-1865
7,	-1866
▁FIFA	-1867
gu	-1868
▁Oyunları	-1869
▁“	-1870
▁inşa	-1871
ktan	-1872
▁Sar	-1873
▁milletvekil	-1874
▁Bo	-1875
▁Gr	-1876
ırak	-1877
▁duy	-1878
meni	-1879
▁Türkçe	-1880
▁Yönet	-1881
mer	-1882
estiv	-1883
▁sı	-1884
▁188	-1885
▁mev	-1886
aştırma	-1887
▁sev	-1888
▁kullanılan	-1889
oks	-1890
▁dizileri	-1891
▁İspanya	-1892
▁bölge	-1893
aw	-1894
▁altında	-1895
▁Yap	-1896
▁Mic	-1897
▁Pet	-1898
anıt	-1899
ida	-1900
itan	-1901
kan	-1902
▁öldü	-1903
işim	-1904
ımcısı	-1905
eci	-1906
▁Sen	-1907
mî	-1908
▁çap	-1909
ph	-1910
▁sadece	-1911
▁İmparatorluğu	-1912
▁un	-1913
yası	-1914
asını	-1915
▁Azerbaycan	-1916
▁bilinen	-1917
amı	-1918
▁geniş	-1919
▁şarkıları	-1920
▁(197	-1921
▁Se	-1922
▁Paris	-1923
olog	-1924
maz	-1925
lendi	-1926
▁kır	-1927
masına	-1928
▁2001	-1929
▁yen	-1930
▁kas	-1931
▁av	-1932
dik	-1933
▁yür	-1934
lüm	-1935
▁Ro	-1936
▁düzenlenen	-1937
nden	-1938
▁Asya	-1939
ight	-1940
ser	-1941
masını	-1942
otor	-1943
▁num	-1944
▁Has	-1945
mam	-1946
▁Rob	-1947
▁topl	-1948
ww	-1949
▁sınıf	-1950
▁Be	-1951
▁per	-1952
lardır	-1953
▁resmi	-1954
▁boy	-1955
aka	-1956
▁kuruluş	-1957
▁kuş	-1958
-201	-1959
ımsız	-1960
ilmesi	-1961
▁düşün	-1962
omb	-1963
▁Spor	-1964
▁1998	-1965
▁1999	-1966
burg	-1967
aal	-1968
▁plan	-1969
▁kayb	-1970
▁Final	-1971
azi	-1972
▁ortaya	-1973
▁katıl	-1974
iyan	-1975
kr	-1976
▁Şehir	-1977
▁filmi	-1978
▁oğlu	-1979
üven	-1980
▁Gir	-1981
▁sezonunda	-1982
▁(2	-1983
lanmış	-1984
▁tiyatro	-1985
for	-1986
▁,	-1987
ve	-1988
▁2021	-1989
▁gür	-1990
▁bırak	-1991
▁alır	-1992
▁zor	-1993
tern	-1994
▁Nor	-1995
▁sayım	-1996
ji	-1997
▁For	-1998
▁So	-1999
▁hazır	-2000
▁genellikle	-2001
▁hız	-2002
▁Yük	-2003
▁Yah	-2004
▁itibaren	-2005
▁siyasetçi	-2006
▁ayrıca	-2007
▁beş	-2008
3,	-2009
▁aday	-2010
luğ	-2011
▁pop	-2012
to	-2013
▁29	-2014
aşk	-2015
▁1992	-2016
▁saha	-2017
▁Fran	-2018
▁j	-2019
▁yerine	-2020
▁187	-2021
ber	-2022
▁sık	-2023
▁Mat	-2024
▁Brezil	-2025
ilah	-2026
evi	-2027
tem	-2028
cadele	-2029
▁sun	-2030
liam	-2031
▁karşıl	-2032
▁Albüm	-2033
▁Sur	-2034
▁Avustr	-2035
▁Kit	-2036
▁haf	-2037
▁şek	-2038
kü	-2039
▁Mus	-2040
▁sonuç	-2041
alyalı	-2042
▁dik	-2043
ill	-2044
aul	-2045
▁adını	-2046
itesinde	-2047
▁Fakültesi	-2048
▁imz	-2049
▁merkezli	-2050
▁ölüm	-2051
ass	-2052
▁Halk	-2053
stit	-2054
▁geldi	-2055
▁mahalleleri	-2056
▁karar	-2057
▁galak	-2058
ood	-2059
▁milletvekilleri	-2060
antin	-2061
ıcı	-2062
▁kr	-2063
nuv	-2064
▁milyon	-2065
▁değer	-2066
▁İç	-2067
5 	-2068
4,	-2069
lisi	-2070
▁Oyuncu	-2071
▁çiz	-2072
onu	-2073
▁Lis	-2074
one	-2075
▁İsveç	-2076
des	-2077
▁İr	-2078
▁hareket	-2079
▁1996	-2080
▁dal	-2081
gın	-2082
▁Bölg	-2083
▁Meh	-2084
iir	-2085
lüğü	-2086
▁kor	-2087
▁poz	-2088
ydı	-2089
▁değiştir	-2090
ham	-2091
▁yıllarında	-2092
üzel	-2093
▁ülkeler	-2094
vat	-2095
rosu	-2096
▁Lond	-2097
▁Mak	-2098
ner	-2099
▁Val	-2100
▁Yarışması	-2101
ai	-2102
▁Ben	-2103
▁güreş	-2104
▁sar	-2105
▁uygul	-2106
▁Gu	-2107
▁san	-2108
▁bah	-2109
▁Can	-2110
siz	-2111
ty	-2112
▁Con	-2113
▁Krallık	-2114
▁2022	-2115
str	-2116
▁sırada	-2117
▁eder	-2118
▁anlaş	-2119
▁grubu	-2120
be	-2121
▁Kı	-2122
▁TV	-2123
▁100	-2124
ternet	-2125
▁4.	-2126
pit	-2127
▁1995	-2128
▁kardeş	-2129
▁elde	-2130
hend	-2131
▁Et	-2132
itik	-2133
ılığı	-2134
▁31	-2135
▁adlandır	-2136
▁oluşan	-2137
taki	-2138
tay	-2139
▁sem	-2140
olojik	-2141
enter	-2142
▁Uz	-2143
▁çıkışlı	-2144
ier	-2145
isini	-2146
sik	-2147
▁Genç	-2148
debiyat	-2149
ince	-2150
▁1993	-2151
▁Kay	-2152
▁Kariy	-2153
ingle	-2154
▁Grub	-2155
abı	-2156
▁gön	-2157
▁babası	-2158
▁Ödülleri	-2159
▁deniz	-2160
50	-2161
▁Resmi	-2162
.000	-2163
ğında	-2164
▁sıra	-2165
row	-2166
ılması	-2167
dem	-2168
dana	-2169
▁oynadı	-2170
imar	-2171
▁tekrar	-2172
oley	-2173
▁dram	-2174
▁yönetim	-2175
▁şu	-2176
▁İzmir	-2177
obil	-2178
teki	-2179
▁Yayın	-2180
▁destek	-2181
▁Grup	-2182
▁bes	-2183
els	-2184
▁genç	-2185
▁hakkında	-2186
▁Hat	-2187
▁mezun	-2188
▁Hak	-2189
bo	-2190
10	-2191
▁mes	-2192
kaç	-2193
▁Süper	-2194
▁Bun	-2195
▁1994	-2196
isine	-2197
ash	-2198
liğini	-2199
▁kıy	-2200
cuları	-2201
▁Is	-2202
mayı	-2203
▁biridir	-2204
rop	-2205
▁dünya	-2206
ive	-2207
▁Tan	-2208
▁def	-2209
▁yok	-2210
▁derg	-2211
▁Mah	-2212
▁1997	-2213
asıyla	-2214
▁döneminde	-2215
avun	-2216
yıldız	-2217
▁dönüş	-2218
▁lig	-2219
▁Kr	-2220
ho	-2221
▁günümüz	-2222
▁taşım	-2223
anlık	-2224
▁kaps	-2225
60	-2226
▁aldığı	-2227
▁ağır	-2228
▁keşfed	-2229
▁transfer	-2230
min	-2231
▁olay	-2232
▁Co	-2233
▁başkanı	-2234
▁oynam	-2235
yle	-2236
lov	-2237
2,	-2238
▁sol	-2239
▁kim	-2240
▁mücadele	-2241
▁1990	-2242
su	-2243
▁Fil	-2244
▁Sul	-2245
▁konu	-2246
rek	-2247
▁man	-2248
▁çıktı	-2249
5,	-2250
▁Art	-2251
▁Gör	-2252
▁Yüz	-2253
▁İran	-2254
▁Avustur	-2255
alt	-2256
ısır	-2257
sidir	-2258
▁tanın	-2259
▁model	-2260
▁Beş	-2261
likleri	-2262
▁can	-2263
▁nok	-2264
▁Dr	-2265
şı	-2266
ciler	-2267
lüğ	-2268
eğ	-2269
▁Mor	-2270
oleybol	-2271
▁ro	-2272
▁etmiştir	-2273
ümüş	-2274
span	-2275
▁Say	-2276
▁fak	-2277
ino	-2278
aca	-2279
dız	-2280
kları	-2281
omet	-2282
col	-2283
ndeki	-2284
▁düny	-2285
▁saldır	-2286
30	-2287
▁Me	-2288
esk	-2289
▁Ne	-2290
▁Ter	-2291
▁Arap	-2292
▁rağ	-2293
▁sürdür	-2294
ke	-2295
▁Kür	-2296
▁yarı	-2297
▁mahalledir	-2298
▁müzi	-2299
▁olması	-2300
▁Batı	-2301
▁1988	-2302
eştir	-2303
▁Not	-2304
iliği	-2305
▁kısm	-2306
▁verilen	-2307
▁Fin	-2308
▁sahibi	-2309
▁hükûmet	-2310
▁Belediy	-2311
▁Char	-2312
▁2010'	-2313
▁rağmen	-2314
▁Aynı	-2315
▁William	-2316
ata	-2317
▁metre	-2318
rid	-2319
▁Sc	-2320
▁to	-2321
▁Paşa	-2322
▁Fer	-2323
▁değil	-2324
ris	-2325
▁Pat	-2326
▁part	-2327
▁Bakanlığı	-2328
umlar	-2329
▁din	-2330
▁yıldız	-2331
▁Resim	-2332
▁uluslararası	-2333
va	-2334
▁mark	-2335
eda	-2336
▁Ön	-2337
▁ber	-2338
ld	-2339
▁gelir	-2340
▁saat	-2341
işleri	-2342
cek	-2343
▁Tok	-2344
▁kariyerine	-2345
azar	-2346
ilim	-2347
▁değişik	-2348
yas	-2349
▁pozisyon	-2350
6,	-2351
▁albümü	-2352
▁çıkan	-2353
izik	-2354
▁parçası	-2355
▁geliş	-2356
▁1989	-2357
▁mal	-2358
andı	-2359
▁tespit	-2360
▁Univers	-2361
umu	-2362
cm	-2363
▁Festiv	-2364
org	-2365
▁Yüksek	-2366
▁(196	-2367
ekili	-2368
▁direktörleri	-2369
ung	-2370
▁Gran	-2371
öyle	-2372
▁mey	-2373
▁Mer	-2374
çiler	-2375
erbest	-2376
▁if	-2377
left	-2378
▁konuş	-2379
▁uyar	-2380
▁takımyıldız	-2381
▁Kil	-2382
tör	-2383
▁mut	-2384
hendis	-2385
▁öldür	-2386
▁yazarları	-2387
vi	-2388
▁Fen	-2389
▁Feder	-2390
▁astr	-2391
▁elekt	-2392
▁Takım	-2393
▁1991	-2394
▁(),	-2395
▁Geor	-2396
▁Don	-2397
▁otom	-2398
▁profesyonel	-2399
▁Macar	-2400
isidir	-2401
▁onun	-2402
▁pat	-2403
▁Fo	-2404
▁kullanılır	-2405
tion	-2406
▁Ko	-2407
▁arasındaki	-2408
▁bölgeler	-2409
atistik	-2410
▁amacı	-2411
kel	-2412
tp	-2413
▁Millî	-2414
are	-2415
▁çalıştı	-2416
▁Kulüp	-2417
afa	-2418
trol	-2419
▁İslam	-2420
▁yas	-2421
▁İspanyol	-2422
old	-2423
▁başlayan	-2424
ılmaktadır	-2425
▁sonucu	-2426
▁gönder	-2427
forman	-2428
▁han	-2429
adır	-2430
▁çift	-2431
krayn	-2432
▁seslendir	-2433
▁başka	-2434
▁Portekiz	-2435
▁kam	-2436
doğ	-2437
rim	-2438
▁ekonom	-2439
▁birkaç	-2440
▁1928	-2441
▁olur	-2442
yüz	-2443
▁Mahal	-2444
▁Jo	-2445
aaliyet	-2446
hurb	-2447
▁Akadem	-2448
▁Dön	-2449
▁sezonu	-2450
▁renk	-2451
ows	-2452
res	-2453
form	-2454
lenmiştir	-2455
▁Köyün	-2456
▁itibarıyla	-2457
sen	-2458
▁Parti	-2459
▁beraber	-2460
▁Sosyal	-2461
▁üçüncü	-2462
▁bağımsız	-2463
▁kav	-2464
▁Mur	-2465
▁kut	-2466
okal	-2467
lerle	-2468
hi	-2469
▁sonunda	-2470
iforn	-2471
enn	-2472
▁kayıtlarında	-2473
larıyla	-2474
▁Ap	-2475
▁alanı	-2476
▁edilir	-2477
orld	-2478
▁dayan	-2479
▁siyasi	-2480
brıs	-2481
▁Anad	-2482
▁okul	-2483
tadyum	-2484
cut	-2485
▁Kö	-2486
▁gurbetçiler	-2487
ğinde	-2488
▁forma	-2489
▁hüküm	-2490
my	-2491
▁rek	-2492
▁etkin	-2493
▁Erz	-2494
▁arkada	-2495
hat	-2496
▁takımyıldızı	-2497
▁Londra	-2498
▁Bulgar	-2499
iri	-2500
▁bitir	-2501
▁Angel	-2502
▁Eski	-2503
▁Tun	-2504
▁Ör	-2505
▁1986	-2506
▁sporcular	-2507
▁Di	-2508
dern	-2509
▁Rec	-2510
▁seb	-2511
hy	-2512
ona	-2513
▁186	-2514
nek	-2515
ational	-2516
ışı	-2517
keri	-2518
The	-2519
▁(20	-2520
▁seçimler	-2521
▁Ot	-2522
▁5.	-2523
ames	-2524
▁Kap	-2525
▁faaliyet	-2526
aşı	-2527
▁anlat	-2528
ory	-2529
rail	-2530
hurbaşk	-2531
talık	-2532
▁komut	-2533
▁Bağ	-2534
▁Demir	-2535
▁bar	-2536
▁Bölüm	-2537
▁Mısır	-2538
▁Britan	-2539
SB	-2540
uvar	-2541
ücü	-2542
ütün	-2543
▁Kıbrıs	-2544
II	-2545
gr	-2546
dam	-2547
izi	-2548
zon	-2549
''	-2550
▁şekl	-2551
▁Eyalet	-2552
▁Trab	-2553
▁Anadolu	-2554
-9	-2555
▁anlamına	-2556
kın	-2557
//	-2558
▁Bunun	-2559
▁etmek	-2560
▁Bor	-2561
▁verdi	-2562
▁adam	-2563
▁Ukrayn	-2564
▁astronom	-2565
usal	-2566
▁geçmektedir	-2567
▁gitar	-2568
▁İkinci	-2569
yanın	-2570
▁yılına	-2571
tin	-2572
▁Belç	-2573
▁gerçekleş	-2574
▁yanı	-2575
ani	-2576
▁Def	-2577
▁tanıt	-2578
▁zam	-2579
▁Diğer	-2580
ori	-2581
▁kral	-2582
▁Mos	-2583
▁Grubu	-2584
▁lis	-2585
▁belirt	-2586
▁aranan	-2587
▁organ	-2588
▁isimli	-2589
▁Polonya	-2590
▁ifade	-2591
efer	-2592
://	-2593
▁bat	-2594
▁Mel	-2595
▁Yunanistan	-2596
SC	-2597
▁Mez	-2598
▁altın	-2599
▁List	-2600
▁toprak	-2601
ille	-2602
mem	-2603
ment	-2604
▁Demokr	-2605
▁Ver	-2606
isyen	-2607
▁Coun	-2608
▁1987	-2609
▁Meks	-2610
▁parça	-2611
▁galaksidir	-2612
▁Ant	-2613
▁komedi	-2614
▁kel	-2615
din	-2616
▁Mü	-2617
▁Bat	-2618
▁proj	-2619
▁Üç	-2620
▁Kem	-2621
-199	-2622
▁soy	-2623
▁kaldı	-2624
▁Ger	-2625
▁Kore	-2626
otoğraf	-2627
▁sona	-2628
meler	-2629
▁özellikle	-2630
▁biç	-2631
▁temel	-2632
▁seçildi	-2633
şehir	-2634
▁ünlü	-2635
▁Enstit	-2636
▁Dağ	-2637
▁şehrin	-2638
ayet	-2639
istler	-2640
▁yolu	-2641
gin	-2642
▁Çek	-2643
eği	-2644
viç	-2645
kar	-2646
abancı	-2647
▁oy	-2648
▁Hollanda	-2649
▁Kam	-2650
18	-2651
Ar	-2652
▁şehri	-2653
▁ünivers	-2654
EFA	-2655
▁kaç	-2656
▁piyas	-2657
▁göç	-2658
mar	-2659
▁famil	-2660
▁Jos	-2661
▁kanal	-2662
▁Mir	-2663
▁Siv	-2664
▁Yard	-2665
▁olmayan	-2666
▁Sin	-2667
▁yapım	-2668
▁çağ	-2669
▁bölgesinde	-2670
▁single	-2671
▁Sev	-2672
▁Roman	-2673
▁Belediye	-2674
BA	-2675
uel	-2676
▁aşağı	-2677
▁büy	-2678
lah	-2679
▁ortak	-2680
alar	-2681
▁Konusu	-2682
12	-2683
▁My	-2684
▁Müs	-2685
isay	-2686
berg	-2687
nesi	-2688
▁art	-2689
▁Bah	-2690
▁motor	-2691
▁Hayatı	-2692
78	-2693
uvvetleri	-2694
▁belediy	-2695
ölç	-2696
ux	-2697
fi	-2698
▁karşılaş	-2699
Al	-2700
deniz	-2701
ikâ	-2702
▁1984	-2703
mal	-2704
▁oyunu	-2705
lad	-2706
▁Kanada	-2707
▁!	-2708
▁roman	-2709
▁kazanan	-2710
▁Tak	-2711
▁dolayı	-2712
▁şarkısı	-2713
▁Ac	-2714
▁2020'	-2715
ışık	-2716
▁Ef	-2717
alog	-2718
▁Kadınlar	-2719
▁Samsun	-2720
ahram	-2721
ital	-2722
har	-2723
▁Yak	-2724
▁UEFA	-2725
lanır	-2726
▁Kızıl	-2727
eşil	-2728
işi	-2729
▁Go	-2730
bat	-2731
▁Başkanı	-2732
üldü	-2733
kil	-2734
▁yürüt	-2735
▁Trabzon	-2736
lek	-2737
ney	-2738
▁dışında	-2739
▁Biz	-2740
▁şarkılar	-2741
dyo	-2742
▁You	-2743
aması	-2744
iklet	-2745
▁Ale	-2746
▁bilinir	-2747
▁Div	-2748
▁kişiler	-2749
▁Med	-2750
ean	-2751
kenin	-2752
eae	-2753
▁Göl	-2754
lim	-2755
▁eyaletinde	-2756
alim	-2757
▁Seri	-2758
maları	-2759
cum	-2760
▁ele	-2761
▁yayınlanan	-2762
neği	-2763
▁Paul	-2764
▁Tarihi	-2765
▁yapmış	-2766
illa	-2767
▁Gre	-2768
▁dizisi	-2769
▁numar	-2770
▁Müdür	-2771
▁madalyalı	-2772
▁Profesyonel	-2773
tık	-2774
▁Liga	-2775
uf	-2776
▁Rad	-2777
dın	-2778
jantin	-2779
▁Ül	-2780
▁silah	-2781
▁le	-2782
mız	-2783
▁Tay	-2784
ame	-2785
▁Bakanı	-2786
▁Avustralya	-2787
leyen	-2788
▁eleştir	-2789
▁yapıldı	-2790
iyordu	-2791
▁içeren	-2792
9,	-2793
▁bulundu	-2794
▁yönünde	-2795
▁ölç	-2796
▁bay	-2797
▁resmî	-2798
mez	-2799
▁19.	-2800
ED	-2801
▁Hrist	-2802
▁Ham	-2803
▁Min	-2804
▁yönettiği	-2805
▁şair	-2806
▁Üniversitesinde	-2807
▁Ros	-2808
▁ismi	-2809
ba	-2810
▁Şehr	-2811
▁yaygın	-2812
▁kontrol	-2813
ansı	-2814
▁Arn	-2815
▁yazarı	-2816
▁mer	-2817
▁iken	-2818
ous	-2819
▁2023	-2820
▁Teknik	-2821
CA	-2822
▁Pal	-2823
▁Hukuk	-2824
▁Festivali	-2825
uklu	-2826
erson	-2827
▁turnuv	-2828
ıyor	-2829
isayar	-2830
▁1985	-2831
▁lider	-2832
▁mevcut	-2833
▁burada	-2834
▁yerel	-2835
areb	-2836
▁kalan	-2837
▁1980	-2838
▁Qu	-2839
taş	-2840
▁tarihli	-2841
▁Wind	-2842
▁tarihleri	-2843
-8	-2844
aceae	-2845
lamak	-2846
ola	-2847
İn	-2848
▁kaldır	-2849
▁pozisyonunda	-2850
▁İsrail	-2851
▁İsviç	-2852
0 	-2853
▁Robert	-2854
-3	-2855
ledi	-2856
▁sistemi	-2857
ball	-2858
emen	-2859
▁hiç	-2860
ita	-2861
▁World	-2862
▁Tor	-2863
▁CO	-2864
aln	-2865
own	-2866
▁suç	-2867
▁Kaliforn	-2868
avi	-2869
▁Mc	-2870
dak	-2871
▁rad	-2872
ove	-2873
▁canlandır	-2874
▁dur	-2875
▁ayrı	-2876
▁sayımına	-2877
▁ilçesinde	-2878
▁yayınlandı	-2879
▁araştırma	-2880
▁ürün	-2881
▁olmuş	-2882
kin	-2883
▁mik	-2884
▁Siyas	-2885
▁Merkezi	-2886
▁Gel	-2887
▁Must	-2888
▁Avusturya	-2889
▁Kaliforniya	-2890
▁kuruldu	-2891
▁başlamıştır	-2892
▁Mehmet	-2893
...	-2894
eth	-2895
▁ulusal	-2896
center	-2897
▁tic	-2898
▁içerisinde	-2899
▁sosyal	-2900
▁edilmiş	-2901
▁Sultan	-2902
▁David	-2903
▁cin	-2904
▁girdi	-2905
▁1982	-2906
lesi	-2907
▁Eğitim	-2908
▁Record	-2909
alnız	-2910
▁milletvekili	-2911
▁Vol	-2912
▁eğit	-2913
▁taşı	-2914
itler	-2915
güt	-2916
▁benzer	-2917
▁onu	-2918
8,	-2919
▁yat	-2920
▁Nehri	-2921
enc	-2922
▁Çağ	-2923
dük	-2924
▁bulunduğu	-2925
▁Kim	-2926
▁City	-2927
▁kurulmuştur	-2928
▁Sol	-2929
dia	-2930
ics	-2931
pe	-2932
▁1983	-2933
▁Seç	-2934
▁serbest	-2935
uma	-2936
▁2000'	-2937
▁Kültür	-2938
iyah	-2939
▁6.	-2940
▁Yerel	-2941
▁idi	-2942
lip	-2943
▁Saint	-2944
▁yıllık	-2945
hael	-2946
TV	-2947
▁No	-2948
▁işlet	-2949
▁yarat	-2950
▁Yaşamı	-2951
▁yoğun	-2952
▁taşımaktadır	-2953
▁Te	-2954
yap	-2955
▁Akdeniz	-2956
▁İki	-2957
▁araç	-2958
40	-2959
▁insan	-2960
▁oyuncusu	-2961
▁yıllarda	-2962
ula	-2963
kenti	-2964
▁Cor	-2965
masıyla	-2966
age	-2967
▁Gül	-2968
ace	-2969
▁Sup	-2970
▁Sonuç	-2971
▁Ven	-2972
▁idari	-2973
nes	-2974
ahçe	-2975
Türk	-2976
▁MÖ	-2977
▁cis	-2978
ivil	-2979
kat	-2980
manı	-2981
ena	-2982
▁vers	-2983
SBN	-2984
▁Cal	-2985
▁gem	-2986
▁İsk	-2987
ndan	-2988
▁Play	-2989
▁Aç	-2990
▁atlet	-2991
iyar	-2992
▁yaşayan	-2993
▁mağ	-2994
▁stü	-2995
▁çöz	-2996
anların	-2997
▁taşın	-2998
▁Arjantin	-2999
ınar	-3000
▁performan	-3001
asından	-3002
▁işlem	-3003
▁şehirdir	-3004
ence	-3005
▁Cem	-3006
▁birimleri	-3007
▁Enstitüsü	-3008
▁form	-3009
▁mens	-3010
off	-3011
ihaz	-3012
likler	-3013
▁Op	-3014
arş	-3015
▁—	-3016
22	-3017
ited	-3018
isel	-3019
1.	-3020
▁Hır	-3021
ndaki	-3022
||0||0	-3023
ane	-3024
▁Norveç	-3025
.,	-3026
rens	-3027
▁güven	-3028
▁Erkekler	-3029
eyin	-3030
▁Los	-3031
▁amaç	-3032
ont	-3033
lenir	-3034
gür	-3035
ded	-3036
tepe	-3037
▁Kara	-3038
▁mat	-3039
▁Tiyatro	-3040
▁183	-3041
▁voleybol	-3042
ğine	-3043
avut	-3044
▁göl	-3045
ira	-3046
ano	-3047
▁Öl	-3048
▁Tüm	-3049
▁Tim	-3050
ırı	-3051
▁puan	-3052
abil	-3053
▁Alb	-3054
▁tipi	-3055
▁giriş	-3056
▁Kariyeri	-3057
ere	-3058
▁Lit	-3059
▁şarkıcıları	-3060
▁Bro	-3061
imark	-3062
▁Gürcü	-3063
▁sayıda	-3064
▁kızı	-3065
▁köken	-3066
▁Tat	-3067
▁ht	-3068
▁Sah	-3069
▁fil	-3070
▁Van	-3071
uth	-3072
macı	-3073
▁ekip	-3074
▁Str	-3075
dusu	-3076
olojisi	-3077
yken	-3078
▁birbir	-3079
▁http	-3080
▁Lat	-3081
suz	-3082
▁uğ	-3083
▁Pan	-3084
▁Çal	-3085
ilerek	-3086
▁çat	-3087
▁sonraki	-3088
▁oluşumlar	-3089
▁Park	-3090
ger	-3091
▁1974	-3092
▁birleş	-3093
▁1990'	-3094
▁Uy	-3095
▁ülke	-3096
▁1979	-3097
▁şeklinde	-3098
▁Sovyetler	-3099
uluğu	-3100
3.	-3101
lidir	-3102
▁cins	-3103
ón	-3104
▁piyasaya	-3105
▁stat	-3106
▁edil	-3107
langı	-3108
lerdir	-3109
tand	-3110
▁şarkıcılar	-3111
cistan	-3112
▁Beyaz	-3113
"|	-3114
▁Başkanlığı	-3115
▁Prof	-3116
▁Mark	-3117
▁Geç	-3118
▁Berlin	-3119
manın	-3120
▁yana	-3121
che	-3122
–19	-3123
▁başbak	-3124
▁başkenti	-3125
▁Gaz	-3126
▁Fat	-3127
ott	-3128
▁Kurulu	-3129
▁başarı	-3130
ington	-3131
▁gök	-3132
▁keşfedilmiştir	-3133
▁la	-3134
arp	-3135
▁tep	-3136
▁boz	-3137
▁Sim	-3138
ester	-3139
▁1981	-3140
▁etmektedir	-3141
▁Hind	-3142
▁uçak	-3143
▁inç	-3144
▁Ermen	-3145
▁koş	-3146
An	-3147
▁1978	-3148
▁ayak	-3149
▁yazdığı	-3150
15	-3151
▁ülkenin	-3152
▁Müslüm	-3153
▁Hen	-3154
▁Lib	-3155
▁dav	-3156
▁imzal	-3157
cisi	-3158
gusal	-3159
rag	-3160
▁(195	-3161
▁Phil	-3162
uldu	-3163
▁1970	-3164
ze	-3165
▁do	-3166
▁Cr	-3167
ford	-3168
▁1976	-3169
▁Akademisi	-3170
▁Gürcistan	-3171
▁çoğun	-3172
mızı	-3173
▁ne	-3174
erbahçe	-3175
▁ken	-3176
▁şiir	-3177
▁Windows	-3178
▁otomobil	-3179
▁mem	-3180
esidir	-3181
▁kaybet	-3182
▁Mag	-3183
▁Michael	-3184
▁kentinde	-3185
▁korum	-3186
▁sayısı	-3187
▁Records	-3188
▁dönemde	-3189
▁Christ	-3190
▁kir	-3191
▁askeri	-3192
▁yayımlanan	-3193
masında	-3194
lament	-3195
▁Şehrin	-3196
que	-3197
▁Erkek	-3198
▁Mosk	-3199
iyatrosu	-3200
▁Yol	-3201
▁War	-3202
.)	-3203
▁alanlar	-3204
▁tekn	-3205
egor	-3206
▁Sak	-3207
▁1975	-3208
▁Mes	-3209
isyonu	-3210
▁Mustafa	-3211
akistan	-3212
▁hukuk	-3213
▁pay	-3214
▁1972	-3215
▁7.	-3216
▁Bölgesi	-3217
▁Başarı	-3218
▁Kons	-3219
▁Gar	-3220
▁Ur	-3221
▁kulübünde	-3222
eksiyon	-3223
lemek	-3224
fesör	-3225
▁Bla	-3226
ünyanın	-3227
▁Tom	-3228
▁sin	-3229
▁Danimark	-3230
▁Del	-3231
▁başarılı	-3232
▁Ex	-3233
▁Şirket	-3234
▁biy	-3235
emin	-3236
▁Dil	-3237
▁olabilir	-3238
âr	-3239
▁ISBN	-3240
▁Ukrayna	-3241
▁SK	-3242
▁versiyon	-3243
▁hey	-3244
▁adet	-3245
üyle	-3246
essam	-3247
ago	-3248
. 	-3249
za	-3250
▁Lu	-3251
isiklet	-3252
leriyle	-3253
▁yağ	-3254
▁mutf	-3255
ax	-3256
▁Boy	-3257
▁Arnavut	-3258
▁style	-3259
▁1973	-3260
▁Mas	-3261
▁James	-3262
akip	-3263
▁mimar	-3264
ölçümü	-3265
▁1977	-3266
ucunda	-3267
▁sak	-3268
▁gez	-3269
4.	-3270
▁grupları	-3271
▁amacıyla	-3272
▁sp	-3273
▁Ahmet	-3274
makta	-3275
▁hava	-3276
▁yapıl	-3277
çileri	-3278
ix	-3279
elsef	-3280
landalı	-3281
▁politik	-3282
▁ayında	-3283
ormal	-3284
▁Cez	-3285
arlar	-3286
▁County	-3287
▁Filmografi	-3288
▁Dok	-3289
▁beste	-3290
çısı	-3291
▁basketbolcuları	-3292
▁Kuvvetleri	-3293
▁yazılım	-3294
▁savun	-3295
▁görüş	-3296
▁veren	-3297
▁Sm	-3298
▁Maç	-3299
▁eğ	-3300
▁ism	-3301
oft	-3302
cısı	-3303
▁Belediyesi	-3304
▁re	-3305
ern	-3306
▁Küçük	-3307
▁kurulmuş	-3308
▁Belçika	-3309
ool	-3310
▁konum	-3311
emek	-3312
25	-3313
▁telesk	-3314
▁şirketler	-3315
▁koy	-3316
▁1968	-3317
▁akadem	-3318
75	-3319
▁öğretim	-3320
eph	-3321
▁Kilis	-3322
▁50	-3323
laştır	-3324
madan	-3325
▁Miss	-3326
▁seçim	-3327
lub	-3328
öv	-3329
▁yapılar	-3330
▁Derneği	-3331
ical	-3332
45	-3333
uru	-3334
▁fotoğraf	-3335
leşme	-3336
liğinde	-3337
▁internet	-3338
▁mit	-3339
orth	-3340
tuğu	-3341
▁Hindistan	-3342
▁kem	-3343
ath	-3344
▁ilan	-3345
▁1960	-3346
▁şirketleri	-3347
11	-3348
▁Dar	-3349
▁Lin	-3350
▁don	-3351
▁müs	-3352
▁yine	-3353
▁gid	-3354
isar	-3355
▁haline	-3356
anlığ	-3357
go	-3358
▁bilgi	-3359
▁Wal	-3360
▁Çocu	-3361
red	-3362
▁Ste	-3363
▁Slov	-3364
ned	-3365
▁doktor	-3366
▁geçti	-3367
▁kapsam	-3368
▁Bizans	-3369
▁stüdyo	-3370
ref	-3371
▁teleskop	-3372
ein	-3373
▁ko	-3374
-20	-3375
▁Hük	-3376
▁Fenerbahçe	-3377
atif	-3378
ğıt	-3379
▁Afrik	-3380
▁Erzurum	-3381
▁yardımcı	-3382
▁bölümü	-3383
ima	-3384
▁verildi	-3385
▁baz	-3386
▁Rum	-3387
▁kazanmıştır	-3388
İngil	-3389
meyi	-3390
▁mek	-3391
▁mah	-3392
▁fakat	-3393
ife	-3394
▁Bursa	-3395
cusu	-3396
ilece	-3397
lom	-3398
70	-3399
▁Söz	-3400
▁takımında	-3401
▁ettiği	-3402
▁pek	-3403
hangi	-3404
▁olduk	-3405
▁185	-3406
▁önceleri	-3407
2.	-3408
▁beyaz	-3409
▁Meclisi	-3410
ID	-3411
etik	-3412
ura	-3413
▁çaplı	-3414
):	-3415
lamış	-3416
▁şehrinde	-3417
▁Ha	-3418
▁telef	-3419
olik	-3420
may	-3421
▁cum	-3422
eksel	-3423
▁2019'	-3424
48	-3425
hane	-3426
▁Din	-3427
-6	-3428
▁alarak	-3429
ius	-3430
23	-3431
▁Eyaleti	-3432
yor	-3433
▁Tiyatrosu	-3434
▁sırasıyla	-3435
ny	-3436
alığı	-3437
taydı	-3438
▁Wh	-3439
▁Web	-3440
ski	-3441
lenmiş	-3442
masının	-3443
▁Ort	-3444
cılık	-3445
▁yazarlar	-3446
▁Adam	-3447
▁bun	-3448
▁inan	-3449
▁Sür	-3450
▁Jack	-3451
▁senar	-3452
ling	-3453
▁ama	-3454
ısına	-3455
▁kelim	-3456
▁vokal	-3457
▁Video	-3458
ubu	-3459
▁alanında	-3460
▁teor	-3461
▁Angeles	-3462
▁Sağ	-3463
▁prof	-3464
ield	-3465
ala	-3466
lığını	-3467
SA	-3468
kg	-3469
culuk	-3470
▁Hırvat	-3471
▁Air	-3472
▁çoğu	-3473
▁Birinci	-3474
kem	-3475
▁yanında	-3476
16	-3477
▁Bazı	-3478
yüzünde	-3479
lasik	-3480
adi	-3481
düncü	-3482
▁1971	-3483
▁Rich	-3484
▁Brezilyalı	-3485
▁yılındaki	-3486
▁yapılmıştır	-3487
▁Kurt	-3488
mesine	-3489
▁Millet	-3490
▁Grand	-3491
köy	-3492
ward	-3493
ematik	-3494
▁tas	-3495
▁vat	-3496
▁Kitap	-3497
▁lisans	-3498
▁başında	-3499
▁Alan	-3500
▁sanatçıları	-3501
izce	-3502
▁Okulu	-3503
▁Pop	-3504
▁edilm	-3505
▁nes	-3506
astik	-3507
▁tarz	-3508
▁Da	-3509
uyu	-3510
▁Sw	-3511
▁Sil	-3512
elerin	-3513
ene	-3514
▁ce	-3515
▁türü	-3516
▁yalnız	-3517
üle	-3518
arlığı	-3519
▁olduğ	-3520
▁Yıldız	-3521
▁Moskova	-3522
7.	-3523
eyn	-3524
▁med	-3525
▁arası	-3526
▁metal	-3527
▁Vak	-3528
▁İd	-3529
ony	-3530
▁Bos	-3531
▁Sy	-3532
ock	-3533
▁ressam	-3534
▁Kir	-3535
ure	-3536
▁işg	-3537
neğin	-3538
▁Suriye	-3539
▁gördü	-3540
▁2018'	-3541
▁şey	-3542
▁boş	-3543
▁Hristiyan	-3544
mayan	-3545
▁bütün	-3546
-5	-3547
▁Nik	-3548
▁ders	-3549
▁yazı	-3550
ân	-3551
▁Küt	-3552
▁%0,	-3553
▁Uzun	-3554
▁Sezon	-3555
▁Tab	-3556
▁Pas	-3557
▁Sivas	-3558
▁Brezilya	-3559
▁rock	-3560
▁hikâ	-3561
▁maçta	-3562
▁Pap	-3563
▁küm	-3564
ayıp	-3565
çesi	-3566
▁Şah	-3567
▁kullanım	-3568
▁edebiyat	-3569
▁Göz	-3570
▁di	-3571
▁başına	-3572
dağ	-3573
▁toplum	-3574
▁col	-3575
▁III	-3576
▁Ob	-3577
▁fizik	-3578
▁İsviçre	-3579
eliği	-3580
-18	-3581
▁biçim	-3582
▁2017'	-3583
teri	-3584
ezi	-3585
latform	-3586
taj	-3587
▁birinci	-3588
▁üzerinden	-3589
▁imp	-3590
▁oluşur	-3591
ıldığı	-3592
▁yapmaktadır	-3593
▁mec	-3594
13	-3595
▁Bol	-3596
▁Galat	-3597
▁Katalog	-3598
▁dünyaya	-3599
▁teş	-3600
▁1969	-3601
▁Televizyon	-3602
mo	-3603
▁Meksika	-3604
▁Mem	-3605
▁küt	-3606
▁elem	-3607
▁iline	-3608
▁yabancı	-3609
▁müziği	-3610
▁popüler	-3611
▁Ana	-3612
iet	-3613
▁Il	-3614
▁teleskopla	-3615
kale	-3616
color	-3617
▁vardı	-3618
▁We	-3619
▁1,	-3620
▁Günümüz	-3621
▁1980'	-3622
ico	-3623
dek	-3624
otball	-3625
▁SED	-3626
ikalı	-3627
ekret	-3628
▁Defans	-3629
acılık	-3630
▁kurdu	-3631
▁Antal	-3632
▁derec	-3633
gro	-3634
oni	-3635
umb	-3636
adık	-3637
atistikleri	-3638
▁2012'	-3639
▁SEDS	-3640
▁oluşturulan	-3641
ören	-3642
ğret	-3643
▁bilgisayar	-3644
▁Sat	-3645
▁Lou	-3646
▁United	-3647
▁Gökyüzünde	-3648
ann	-3649
▁8.	-3650
tain	-3651
▁Muham	-3652
▁Bill	-3653
▁3:	-3654
▁cam	-3655
ever	-3656
▁kuvvet	-3657
▁kardeşi	-3658
asaray	-3659
▁val	-3660
▁hemen	-3661
nu	-3662
izasyon	-3663
▁görüntü	-3664
back	-3665
masından	-3666
▁sonucunda	-3667
▁Cami	-3668
ois	-3669
▁bek	-3670
▁hüc	-3671
araj	-3672
çak	-3673
▁çalışmaları	-3674
21	-3675
hal	-3676
▁herhangi	-3677
▁doğu	-3678
▁kamp	-3679
sch	-3680
▁derece	-3681
▁doğal	-3682
mm	-3683
▁kitabı	-3684
los	-3685
▁fir	-3686
▁Cup	-3687
▁kilomet	-3688
lilik	-3689
▁aşağıdaki	-3690
elt	-3691
▁Est	-3692
ladığı	-3693
ér	-3694
▁Oyuncular	-3695
isa	-3696
olf	-3697
▁Love	-3698
▁Yahudi	-3699
▁kategor	-3700
rah	-3701
▁Sitesi	-3702
BC	-3703
▁Alex	-3704
don	-3705
▁içerir	-3706
ülen	-3707
▁İskoç	-3708
▁kalın	-3709
▁anda	-3710
▁Gazet	-3711
▁Sinema	-3712
▁Açık	-3713
▁sonrasında	-3714
acağ	-3715
▁başrol	-3716
▁del	-3717
▁çevir	-3718
▁hastalık	-3719
▁Güreş	-3720
▁batı	-3721
▁cez	-3722
▁üretim	-3723
▁Adana	-3724
opa	-3725
-198	-3726
▁2016'	-3727
▁To	-3728
▁Mik	-3729
▁Balık	-3730
▁döndü	-3731
üğ	-3732
▁kurum	-3733
▁kilis	-3734
▁Gö	-3735
▁defned	-3736
▁All	-3737
▁dramatik	-3738
▁sayf	-3739
5.	-3740
▁Yen	-3741
nam	-3742
adaki	-3743
▁Yüzölçümü	-3744
▁rap	-3745
▁yık	-3746
elerinde	-3747
rap	-3748
▁Vil	-3749
▁Kıs	-3750
▁Galatasaray	-3751
▁Dis	-3752
▁Hüs	-3753
▁1967	-3754
▁Kemal	-3755
▁Koreli	-3756
▁ölmüştür	-3757
adalı	-3758
▁coğraf	-3759
udur	-3760
▁Bulgaristan	-3761
▁hayvan	-3762
vin	-3763
iplom	-3764
▁çocuğu	-3765
▁satın	-3766
espor	-3767
▁Eser	-3768
ors	-3769
ect	-3770
▁Bot	-3771
▁1965	-3772
ronik	-3773
▁uygun	-3774
▁Sonuçlar	-3775
▁düzey	-3776
▁müsab	-3777
▁George	-3778
▁1964	-3779
FC	-3780
âl	-3781
asya	-3782
▁Thom	-3783
26	-3784
▁FK	-3785
▁Çocuk	-3786
İngilizce	-3787
▁Üy	-3788
▁Komisyonu	-3789
tis	-3790
▁[	-3791
▁1966	-3792
rat	-3793
başı	-3794
▁haber	-3795
itz	-3796
▁Men	-3797
ain	-3798
▁günü	-3799
▁Başbak	-3800
14	-3801
ese	-3802
▁Hava	-3803
▁Flor	-3804
▁demir	-3805
isinden	-3806
▁10.	-3807
▁Dönem	-3808
▁imparator	-3809
▁Var	-3810
▁Bilim	-3811
mesini	-3812
▁altyap	-3813
tip	-3814
▁Macaristan	-3815
▁Gümüş	-3816
▁sıcak	-3817
▁geçer	-3818
bistan	-3819
▁1970'	-3820
nan	-3821
28	-3822
▁Lisesi	-3823
▁oluştuğu	-3824
▁mühendis	-3825
▁örnek	-3826
▁siyah	-3827
▁paylaş	-3828
▁sonrası	-3829
▁eğitimi	-3830
▁Pe	-3831
▁Star	-3832
▁Topl	-3833
▁Ordu	-3834
▁Ermeni	-3835
www	-3836
▁Sey	-3837
▁Aydın	-3838
▁yapımcı	-3839
▁yüzyılın	-3840
▁Frank	-3841
▁Çev	-3842
▁yardım	-3843
▁des	-3844
▁Super	-3845
▁Jean	-3846
▁nit	-3847
mesiyle	-3848
nü	-3849
laması	-3850
▁Bit	-3851
▁belg	-3852
▁güzel	-3853
iden	-3854
ısından	-3855
liga	-3856
-7	-3857
bon	-3858
▁Kanadalı	-3859
dy	-3860
▁oldukça	-3861
▁satış	-3862
ıf	-3863
17	-3864
ota	-3865
▁Ekonom	-3866
▁9.	-3867
▁Haned	-3868
▁16.	-3869
▁zamanlar	-3870
▁üniversit	-3871
▁ener	-3872
▁Cumhurbaşk	-3873
▁Sab	-3874
▁Li	-3875
▁iht	-3876
aspor	-3877
ılabilir	-3878
▁dak	-3879
▁Notlar	-3880
uyor	-3881
way	-3882
alıdır	-3883
▁tat	-3884
edik	-3885
▁40	-3886
ett	-3887
▁Amer	-3888
▁Irak	-3889
▁saldırı	-3890
ündeki	-3891
▁buz	-3892
▁önceki	-3893
lev	-3894
uluş	-3895
▁teda	-3896
▁Eş	-3897
rul	-3898
▁nokt	-3899
▁Cen	-3900
▁Off	-3901
▁Bilg	-3902
▁sıral	-3903
shire	-3904
bur	-3905
▁Ken	-3906
▁Basketbol	-3907
▁Ho	-3908
idi	-3909
▁Edebiyat	-3910
▁etmiş	-3911
TA	-3912
▁yeri	-3913
▁Adalet	-3914
ademi	-3915
▁başlat	-3916
||||	-3917
▁2011'	-3918
▁değildir	-3919
▁Federasyonu	-3920
▁Madalya	-3921
cileri	-3922
▁dair	-3923
▁vatanda	-3924
▁parti	-3925
▁Kardeş	-3926
▁pil	-3927
▁İrlanda	-3928
▁Biy	-3929
ail	-3930
▁(;	-3931
▁by	-3932
▁kulüpleri	-3933
▁tamamladı	-3934
▁yasa	-3935
▁Plan	-3936
▁()	-3937
öylece	-3938
aden	-3939
▁günümüzde	-3940
▁Bab	-3941
▁yorum	-3942
▁sub	-3943
▁("	-3944
anik	-3945
▁defa	-3946
anak	-3947
cık	-3948
▁uygulama	-3949
amam	-3950
ukat	-3951
▁Müzesi	-3952
▁mensubu	-3953
▁Beşik	-3954
▁Forvet	-3955
▁ilet	-3956
▁dep	-3957
lukla	-3958
▁1961	-3959
arında	-3960
▁meydana	-3961
langıç	-3962
▁telefon	-3963
ato	-3964
ört	-3965
▁2014'	-3966
▁4:	-3967
▁Jon	-3968
▁yöntem	-3969
▁Tal	-3970
▁Taş	-3971
▁konser	-3972
ılarak	-3973
larındaki	-3974
▁teh	-3975
▁sunu	-3976
au	-3977
2 	-3978
▁fır	-3979
▁ara	-3980
▁takımları	-3981
▁ziy	-3982
öm	-3983
▁Bank	-3984
▁hafta	-3985
ings	-3986
▁Konu	-3987
▁Tah	-3988
meyen	-3989
ora	-3990
▁kayn	-3991
▁müzisyen	-3992
▁kons	-3993
▁Finland	-3994
▁kazananlar	-3995
lanma	-3996
-4	-3997
▁atandı	-3998
yolu	-3999
."	-4000
▁Black	-4001
▁katkı	-4002
▁Yönetim	-4003
▁Bölge	-4004
elerinin	-4005
▁kısmı	-4006
▁geçmiş	-4007
▁Jul	-4008
▁Red	-4009
ayıcı	-4010
ald	-4011
▁Meclis	-4012
▁Komut	-4013
▁anim	-4014
▁2015'	-4015
▁sorun	-4016
ope	-4017
▁kork	-4018
no	-4019
oto	-4020
ground	-4021
▁Stadyum	-4022
▁Britanya	-4023
▁çalışan	-4024
▁Franc	-4025
acağı	-4026
▁Tour	-4027
▁duyur	-4028
▁Muhammed	-4029
En	-4030
ısını	-4031
▁ederek	-4032
▁kuzeyinde	-4033
▁şirketi	-4034
4 	-4035
▁Kut	-4036
6.	-4037
▁sekiz	-4038
▁Far	-4039
▁dans	-4040
▁etkil	-4041
▁adına	-4042
▁(194	-4043
▁hiçbir	-4044
erken	-4045
▁2021'	-4046
▁Hint	-4047
▁kitab	-4048
pek	-4049
idae	-4050
▁tanrı	-4051
▁görevini	-4052
elerde	-4053
▁+	-4054
▁para	-4055
▁araştır	-4056
▁profesör	-4057
RT	-4058
▁Do	-4059
iyeti	-4060
▁bileş	-4061
ünist	-4062
alimanı	-4063
▁1920	-4064
▁sahne	-4065
▁başlar	-4066
ase	-4067
▁örgüt	-4068
▁Aşağı	-4069
acaktır	-4070
▁Tw	-4071
▁2008'	-4072
▁dünyanın	-4073
▁Sırp	-4074
▁dikkat	-4075
so	-4076
▁Nur	-4077
33	-4078
ko	-4079
▁Niş	-4080
oslav	-4081
▁atan	-4082
▁Mich	-4083
ses	-4084
199	-4085
mada	-4086
altı	-4087
▁kökenli	-4088
inler	-4089
çu	-4090
▁Antik	-4091
SS	-4092
▁2009'	-4093
▁engel	-4094
▁direktörler	-4095
▁tart	-4096
▁insanları	-4097
▁hap	-4098
24	-4099
ole	-4100
rafik	-4101
▁boyut	-4102
ky	-4103
▁yör	-4104
▁dağıt	-4105
ilerini	-4106
lediği	-4107
▁Konya	-4108
▁kans	-4109
▁Micros	-4110
▁arkadaş	-4111
▁performans	-4112
▁kı	-4113
amaz	-4114
▁Dal	-4115
▁modern	-4116
▁kurucu	-4117
▁tekli	-4118
ildiği	-4119
▁alındı	-4120
St	-4121
▁2007'	-4122
▁yalnızca	-4123
▁Düz	-4124
▁Premi	-4125
▁yazılan	-4126
▁üretilen	-4127
▁konusunda	-4128
diler	-4129
▁Antalya	-4130
▁184	-4131
▁tük	-4132
▁iler	-4133
▁Ölüm	-4134
▁maçı	-4135
▁Yeşil	-4136
dikten	-4137
▁Ölümü	-4138
car	-4139
▁Football	-4140
▁Yahud	-4141
▁Hers	-4142
▁Beşiktaş	-4143
ech	-4144
▁West	-4145
sim	-4146
ati	-4147
▁Yayınları	-4148
▁Araştırma	-4149
▁Hor	-4150
▁cihaz	-4151
liğinden	-4152
▁Dir	-4153
▁Tokyo	-4154
▁hızlı	-4155
undaki	-4156
▁Akademi	-4157
▁2013'	-4158
asi	-4159
ındır	-4160
▁edilmektedir	-4161
▁adında	-4162
▁Lev	-4163
▁ilçesi	-4164
ilenler	-4165
▁Finlandiya	-4166
▁Eng	-4167
▁Sun	-4168
ediği	-4169
işehir	-4170
▁bölgesi	-4171
▁nüfusunun	-4172
9.	-4173
liğe	-4174
▁Kürt	-4175
tle	-4176
▁istasyon	-4177
▁Of	-4178
▁düşük	-4179
uay	-4180
▁Charles	-4181
▁sit	-4182
ilere	-4183
▁kayded	-4184
ğa	-4185
ahat	-4186
▁ona	-4187
▁Maked	-4188
▁Katolik	-4189
▁Ta	-4190
▁güçlü	-4191
ayi	-4192
ube	-4193
▁hayatı	-4194
fik	-4195
rix	-4196
▁Kiş	-4197
▁Microsoft	-4198
iter	-4199
▁tamamen	-4200
▁sayılı	-4201
▁hayv	-4202
▁Kent	-4203
▁Bölümü	-4204
▁taşıyan	-4205
▁yapımcısı	-4206
▁Güzel	-4207
▁Müdürlüğü	-4208
nün	-4209
layarak	-4210
edef	-4211
esh	-4212
▁Ren	-4213
amak	-4214
▁Arab	-4215
▁görevi	-4216
▁birinc	-4217
madı	-4218
iti	-4219
▁Danimarka	-4220
enis	-4221
luğunda	-4222
pa	-4223
▁arac	-4224
▁Çok	-4225
ks	-4226
▁1962	-4227
")	-4228
yu	-4229
▁polis	-4230
00'	-4231
▁Sem	-4232
ander	-4233
▁hes	-4234
▁almış	-4235
ilmek	-4236
▁von	-4237
lanması	-4238
▁bunun	-4239
ahim	-4240
▁1959	-4241
▁Kaf	-4242
▁pan	-4243
▁Vic	-4244
yar	-4245
ican	-4246
▁Yarı	-4247
ja	-4248
▁giz	-4249
▁annesi	-4250
▁sarmal	-4251
bek	-4252
▁ateş	-4253
▁basketbolcular	-4254
NA	-4255
▁iddia	-4256
▁siyaset	-4257
▁kavram	-4258
35	-4259
▁sab	-4260
▁National	-4261
oru	-4262
bu	-4263
▁17.	-4264
▁Kuş	-4265
▁Peter	-4266
▁çekilmiş	-4267
▁çıkmıştır	-4268
▁Ag	-4269
ilebilir	-4270
▁çizgi	-4271
isyenler	-4272
▁1963	-4273
ijinal	-4274
▁Disk	-4275
malar	-4276
▁ayrıldı	-4277
▁Sırbistan	-4278
▁hast	-4279
maktaydı	-4280
▁Esk	-4281
▁Tic	-4282
▁diplom	-4283
VID	-4284
▁Hot	-4285
tel	-4286
▁mac	-4287
▁Kab	-4288
mann	-4289
▁çarp	-4290
lop	-4291
▁senary	-4292
▁köyü	-4293
▁colspan	-4294
ğe	-4295
▁Güven	-4296
▁dördüncü	-4297
▁Mezarlığı	-4298
▁kök	-4299
▁Richard	-4300
▁deney	-4301
▁sahn	-4302
▁verilmiştir	-4303
▁Karab	-4304
▁oynanan	-4305
▁yum	-4306
tren	-4307
wa	-4308
▁2,	-4309
▁Mit	-4310
▁Enter	-4311
▁zar	-4312
▁özellik	-4313
lıca	-4314
▁Muhareb	-4315
▁Dışişleri	-4316
wood	-4317
sin	-4318
▁eşi	-4319
anış	-4320
uyordu	-4321
▁Karak	-4322
▁Fakültesinde	-4323
▁ 	-4324
▁seçimleri	-4325
ukarı	-4326
▁Rock	-4327
▁with	-4328
▁Po	-4329
▁orman	-4330
meden	-4331
▁kişilik	-4332
▁canlı	-4333
▁radyo	-4334
NE	-4335
oug	-4336
▁Vir	-4337
ilerine	-4338
sur	-4339
▁18.	-4340
▁University	-4341
▁11.	-4342
osunu	-4343
▁Abd	-4344
▁Haf	-4345
ahraman	-4346
▁başkan	-4347
▁felsef	-4348
▁geleneksel	-4349
▁balık	-4350
▁site	-4351
by	-4352
ğın	-4353
||0||	-4354
▁bina	-4355
▁Diyar	-4356
we	-4357
▁idar	-4358
▁|}	-4359
liyet	-4360
▁gelmektedir	-4361
▁ki	-4362
▁Uluslar	-4363
mon	-4364
▁bugün	-4365
▁Net	-4366
omen	-4367
ağan	-4368
▁incel	-4369
ınca	-4370
▁kullanılmıştır	-4371
elç	-4372
refektör	-4373
engin	-4374
▁Kilisesi	-4375
▁yönetic	-4376
▁ortal	-4377
▁malz	-4378
▁sergil	-4379
tandart	-4380
80	-4381
▁nedenle	-4382
onyalı	-4383
ısının	-4384
▁Sü	-4385
ucusu	-4386
▁Gi	-4387
▁güneyinde	-4388
▁Bilimler	-4389
cy	-4390
atürk	-4391
▁sebeb	-4392
▁fon	-4393
▁1960'	-4394
▁Intern	-4395
▁PGC	-4396
doğu	-4397
▁terc	-4398
ografisi	-4399
ette	-4400
▁kür	-4401
▁dar	-4402
▁yedi	-4403
lenin	-4404
Rus	-4405
▁bakım	-4406
▁min	-4407
▁Çift	-4408
▁bab	-4409
▁Premier	-4410
▁CD	-4411
▁Kend	-4412
▁Fri	-4413
ıyordu	-4414
▁Amerikalılar	-4415
daş	-4416
▁Krallığı	-4417
▁Adaları	-4418
29	-4419
▁COVID	-4420
▁Fre	-4421
36	-4422
chel	-4423
▁finalde	-4424
ee	-4425
▁Pic	-4426
▁Gro	-4427
▁sorumlu	-4428
background	-4429
board	-4430
▁seçimlerinde	-4431
yer	-4432
▁bulunmuştur	-4433
▁Şampiyonlar	-4434
▁öncesi	-4435
▁Başarıları	-4436
▁tamamlanan	-4437
▁İlin	-4438
▁Konseyi	-4439
▁sefer	-4440
▁Elekt	-4441
iro	-4442
▁Güneş	-4443
▁Devleti	-4444
▁sınırları	-4445
illi	-4446
▁Ban	-4447
▁Mek	-4448
▁babasıdır	-4449
lıklı	-4450
▁webs	-4451
▁yerini	-4452
rich	-4453
▁Cap	-4454
▁pazar	-4455
ağa	-4456
▁dek	-4457
▁orijinal	-4458
▁durumu	-4459
▁yapılır	-4460
▁verir	-4461
▁Diz	-4462
üstü	-4463
▁ant	-4464
▁platform	-4465
▁Ast	-4466
▁Zel	-4467
▁Romanya	-4468
▁Naz	-4469
align	-4470
ls	-4471
▁cisimleri	-4472
▁aynalı	-4473
▁bildir	-4474
lec	-4475
▁anime	-4476
udu	-4477
▁Bon	-4478
27	-4479
▁Başkan	-4480
out	-4481
▁öy	-4482
dae	-4483
▁dili	-4484
▁lim	-4485
▁mesaf	-4486
▁sim	-4487
cılar	-4488
▁izin	-4489
▁13.	-4490
▁178	-4491
▁listeleri	-4492
sar	-4493
mit	-4494
▁Dur	-4495
▁stadyum	-4496
ua	-4497
▁bal	-4498
▁işgal	-4499
bey	-4500
day	-4501
▁oluşmaktadır	-4502
ound	-4503
▁heykel	-4504
▁Fu	-4505
▁Oğ	-4506
▁aktif	-4507
▁uğr	-4508
CD	-4509
xt	-4510
vanya	-4511
▁Kast	-4512
▁yoluyla	-4513
▁öğretmen	-4514
▁kasab	-4515
▁12.	-4516
OS	-4517
▁Mühendis	-4518
▁oynadığı	-4519
,7	-4520
cer	-4521
stein	-4522
▁aile	-4523
arch	-4524
▁Parlament	-4525
▁Üst	-4526
▁Program	-4527
lish	-4528
▁Trans	-4529
▁Mün	-4530
ava	-4531
▁Proj	-4532
ele	-4533
omi	-4534
▁NBA	-4535
▁Burada	-4536
▁kolay	-4537
dat	-4538
▁köş	-4539
▁Ir	-4540
▁Tıp	-4541
▁1958	-4542
batı	-4543
bakır	-4544
▁)	-4545
▁Günümüzde	-4546
:#	-4547
▁Cer	-4548
ronz	-4549
over	-4550
ugoslav	-4551
▁op	-4552
▁Ün	-4553
gü	-4554
▁komp	-4555
▁halinde	-4556
▁yılının	-4557
▁hayatını	-4558
▁arkadaşı	-4559
âh	-4560
▁ağaç	-4561
▁park	-4562
▁kitapları	-4563
ome	-4564
▁Mey	-4565
liler	-4566
▁verdiği	-4567
▁olmasına	-4568
▁tal	-4569
▁North	-4570
▁yayınlar	-4571
ünkü	-4572
▁Martin	-4573
▁Nob	-4574
▁sanatçısı	-4575
▁Kör	-4576
▁Bilgi	-4577
▁Form	-4578
▁Hasan	-4579
▁doğrudan	-4580
▁Yas	-4581
ão	-4582
▁Kariyer	-4583
ılımı	-4584
▁Liv	-4585
▁Camii	-4586
▁filmidir	-4587
ersin	-4588
dus	-4589
▁çatışma	-4590
adde	-4591
▁kendisine	-4592
ıdır	-4593
▁kişinin	-4594
uman	-4595
▁takip	-4596
▁gelmiştir	-4597
esir	-4598
▁Roy	-4599
▁yani	-4600
▁One	-4601
▁mas	-4602
osta	-4603
▁Andre	-4604
ilt	-4605
brahim	-4606
▁2006'	-4607
▁Müslüman	-4608
▁uzay	-4609
▁ab	-4610
▁ışık	-4611
▁Champ	-4612
aklı	-4613
▁başkanları	-4614
ğinden	-4615
▁1956	-4616
▁LG	-4617
▁Nat	-4618
▁Galeri	-4619
▁civ	-4620
▁Atatürk	-4621
38	-4622
▁İnsan	-4623
▁Wash	-4624
▁zorunda	-4625
▁sahipliği	-4626
▁Cat	-4627
▁yönelik	-4628
arken	-4629
▁hücre	-4630
▁kulüplerinde	-4631
ezya	-4632
▁yazdı	-4633
▁seçilmiştir	-4634
▁uçuş	-4635
▁1950	-4636
39	-4637
▁Yılın	-4638
▁gelebilir	-4639
▁vatandaş	-4640
▁Kulüb	-4641
▁Dağı	-4642
edia	-4643
oma	-4644
idth	-4645
▁semt	-4646
▁şampiyonu	-4647
ella	-4648
ning	-4649
▁psik	-4650
66	-4651
▁14.	-4652
▁Press	-4653
▁Nev	-4654
▁Diyarbakır	-4655
lığına	-4656
▁Prens	-4657
▁Çay	-4658
▁rüt	-4659
ülü	-4660
▁King	-4661
par	-4662
▁Çalışma	-4663
▁kırmızı	-4664
afer	-4665
astır	-4666
▁indir	-4667
▁Vik	-4668
▁rolü	-4669
lon	-4670
laşması	-4671
elli	-4672
▁Tür	-4673
▁Thomas	-4674
▁bitk	-4675
▁avukat	-4676
▁Milletv	-4677
▁mar	-4678
▁yükseldi	-4679
▁Kupa	-4680
aylar	-4681
hr	-4682
▁yapılmış	-4683
▁doğum	-4684
▁gösteren	-4685
▁ödülü	-4686
▁gazetec	-4687
▁hedef	-4688
ild	-4689
elere	-4690
▁profili	-4691
▁yoktur	-4692
eter	-4693
zi	-4694
▁nokta	-4695
▁askerî	-4696
akya	-4697
▁yönetmenliğini	-4698
elerine	-4699
▁ziyaret	-4700
▁sok	-4701
▁Lee	-4702
▁Fas	-4703
▁Cam	-4704
▁Okyan	-4705
▁karakterler	-4706
ovi	-4707
▁yemek	-4708
▁müsabak	-4709
▁ölçü	-4710
emiştir	-4711
mut	-4712
▁listesinde	-4713
aff	-4714
▁bisiklet	-4715
án	-4716
37	-4717
aly	-4718
uck	-4719
▁isimler	-4720
▁Evli	-4721
▁Fransızca	-4722
▁tav	-4723
iyel	-4724
▁aktiv	-4725
▁kullanıcı	-4726
▁Washington	-4727
▁Vakf	-4728
seri	-4729
▁tasarım	-4730
▁Hollandalı	-4731
desliga	-4732
▁nehir	-4733
ater	-4734
▁hip	-4735
▁from	-4736
▁yayımlandı	-4737
8.	-4738
▁ailesi	-4739
▁geliştirilen	-4740
oğol	-4741
▁Ülk	-4742
ijital	-4743
▁Entertain	-4744
▁15.	-4745
▁mon	-4746
▁Yugoslav	-4747
ush	-4748
▁km	-4749
▁üzerindeki	-4750
▁Adası	-4751
mekte	-4752
▁General	-4753
isti	-4754
▁gözlem	-4755
▁Boğ	-4756
▁Eli	-4757
▁uygulan	-4758
▁Ka	-4759
▁unvan	-4760
▁Murat	-4761
▁Kong	-4762
▁Kn	-4763
▁Kış	-4764
▁sayfa	-4765
▁kop	-4766
▁Polonyalı	-4767
lanmaktadır	-4768
▁Real	-4769
▁ef	-4770
igh	-4771
▁bey	-4772
▁Anton	-4773
▁Gol	-4774
▁Dom	-4775
ullah	-4776
▁bölgede	-4777
▁oper	-4778
▁kaydet	-4779
▁müdür	-4780
▁Club	-4781
▁Yönetmen	-4782
▁Tunus	-4783
▁Şark	-4784
eydi	-4785
▁olsa	-4786
▁bronz	-4787
▁eşit	-4788
asıdır	-4789
▁Hist	-4790
▁anlamlara	-4791
esindeki	-4792
elle	-4793
▁üretic	-4794
▁Hanedanı	-4795
ake	-4796
oth	-4797
▁NA	-4798
▁Entertainment	-4799
▁türüdür	-4800
rem	-4801
▁fik	-4802
▁duvar	-4803
üphan	-4804
ipp	-4805
▁ulaşım	-4806
ırlar	-4807
▁Okul	-4808
▁gümüş	-4809
▁ic	-4810
▁1955	-4811
▁kapas	-4812
gat	-4813
▁animasyon	-4814
3 	-4815
▁Büyükşehir	-4816
▁oda	-4817
▁It	-4818
90	-4819
▁Zaman	-4820
vis	-4821
▁Ordusu	-4822
oo	-4823
▁Fir	-4824
▁2022'	-4825
▁ekonomik	-4826
▁takımının	-4827
▁maçında	-4828
▁birleştir	-4829
acağını	-4830
▁Hükûmet	-4831
▁matematik	-4832
▁Max	-4833
▁Fakat	-4834
▁dönemi	-4835
▁belirli	-4836
ink	-4837
ria	-4838
meleri	-4839
▁Demokrat	-4840
sed	-4841
lendiği	-4842
orf	-4843
▁Şey	-4844
▁normal	-4845
▁giren	-4846
trenör	-4847
▁işaret	-4848
▁rolünde	-4849
▁Resmî	-4850
▁(3	-4851
▁Soci	-4852
▁hale	-4853
▁mode	-4854
lie	-4855
▁kapat	-4856
▁İbrahim	-4857
7 	-4858
deri	-4859
▁evlendi	-4860
▁köpr	-4861
yr	-4862
ebek	-4863
▁Music	-4864
▁bağlantı	-4865
▁ekiplerinden	-4866
▁Dol	-4867
urgu	-4868
▁gösterir	-4869
liy	-4870
▁Let	-4871
ograp	-4872
▁Arnavutluk	-4873
▁Mu	-4874
▁Yerelnet	-4875
▁Havalimanı	-4876
▁Jac	-4877
ulmuş	-4878
▁cumhurbaşk	-4879
essa	-4880
▁bakanları	-4881
▁Kısa	-4882
▁filminde	-4883
▁Madrid	-4884
▁Balıkesir	-4885
▁Uyg	-4886
▁romanlar	-4887
▁Day	-4888
▁kendisi	-4889
▁Sosyalist	-4890
ition	-4891
▁Blu	-4892
oli	-4893
▁Toplam	-4894
▁tahmin	-4895
var	-4896
engi	-4897
ksiyon	-4898
▁Çanak	-4899
▁rütb	-4900
ulmuştur	-4901
ates	-4902
▁romanları	-4903
ilerinin	-4904
cil	-4905
▁Yerli	-4906
▁Milletler	-4907
▁Emir	-4908
▁Kel	-4909
▁öner	-4910
▁yapmak	-4911
▁sey	-4912
▁Ph	-4913
▁ordu	-4914
itör	-4915
▁ila	-4916
▁Eskişehir	-4917
adir	-4918
▁ip	-4919
▁Asker	-4920
▁gitti	-4921
▁dalında	-4922
▁Mersin	-4923
▁Nişanı	-4924
▁çapında	-4925
edy	-4926
▁Ge	-4927
▁Turnuv	-4928
▁tablo	-4929
liğine	-4930
▁Efendi	-4931
tures	-4932
▁Bundesliga	-4933
▁markaları	-4934
paşa	-4935
▁kişidir	-4936
▁sayesinde	-4937
lıklar	-4938
▁sürdürdü	-4939
mail	-4940
▁İnternet	-4941
do	-4942
▁Doktor	-4943
▁defnedilenler	-4944
▁ilinde	-4945
▁şehridir	-4946
▁iy	-4947
▁(202	-4948
amadı	-4949
▁attı	-4950
abilece	-4951
▁Herschel	-4952
8 	-4953
▁arka	-4954
▁mevcuttur	-4955
▁bitki	-4956
▁grubun	-4957
ülmektedir	-4958
▁ayır	-4959
▁ilişkileri	-4960
▁kup	-4961
▁Hüseyin	-4962
▁Siyasi	-4963
▁insanı	-4964
giller	-4965
▁yıllar	-4966
▁maddeleri	-4967
▁büny	-4968
lenmesi	-4969
▁;	-4970
▁Ark	-4971
▁red	-4972
▁Bl	-4973
▁Moğol	-4974
▁zengin	-4975
ae	-4976
▁birey	-4977
▁Fatih	-4978
▁elektrik	-4979
▁kısım	-4980
▁Stev	-4981
alyası	-4982
▁60	-4983
ıtlar	-4984
▁hikây	-4985
▁soğ	-4986
▁Kart	-4987
▁seviy	-4988
▁SC	-4989
▁Alp	-4990
düstr	-4991
jen	-4992
▁programları	-4993
ple	-4994
ayir	-4995
işli	-4996
ısıyla	-4997
▁gaz	-4998
▁may	-4999
6 	-5000
▁statüsü	-5001
▁istif	-5002
▁başkanlığı	-5003
▁ortam	-5004
▁sözleşme	-5005
▁Boz	-5006
▁Francis	-5007
birliği	-5008
sp	-5009
line	-5010
dere	-5011
▁Milli	-5012
▁Demokratik	-5013
▁Bin	-5014
▁sebep	-5015
▁ticaret	-5016
ero	-5017
cia	-5018
||1	-5019
uss	-5020
▁Kurgusal	-5021
▁bilinmektedir	-5022
▁giydi	-5023
▁Silah	-5024
44	-5025
icial	-5026
▁Ermenistan	-5027
▁üye	-5028
▁Gram	-5029
▁Ligue	-5030
use	-5031
▁1945	-5032
malı	-5033
▁bölümünde	-5034
arya	-5035
▁Gölü	-5036
▁Sistem	-5037
▁Kastam	-5038
▁edeb	-5039
▁Selç	-5040
▁yerleştir	-5041
▁görülür	-5042
▁ah	-5043
▁Prix	-5044
▁yönetmeni	-5045
bin	-5046
yaz	-5047
▁1957	-5048
iller	-5049
▁bazen	-5050
▁harf	-5051
baş	-5052
ien	-5053
arsça	-5054
▁hastan	-5055
rit	-5056
iantep	-5057
▁denir	-5058
▁1954	-5059
▁Sağlık	-5060
▁Denizi	-5061
▁Sonr	-5062
▁Diskografi	-5063
▁sporcu	-5064
▁karşısında	-5065
▁Aşk	-5066
▁x	-5067
▁Viy	-5068
▁Avustralyalı	-5069
▁otur	-5070
lılık	-5071
▁sınıflandır	-5072
elerinden	-5073
▁Mut	-5074
▁sürüm	-5075
▁kötü	-5076
▁Kos	-5077
▁Billboard	-5078
▁Savun	-5079
▁Champion	-5080
▁oluşturur	-5081
erede	-5082
▁kıyı	-5083
ecik	-5084
▁oynan	-5085
lass	-5086
TC	-5087
içek	-5088
▁anal	-5089
▁yüzey	-5090
▁kamu	-5091
▁tarım	-5092
▁Sarı	-5093
▁takson	-5094
▁1919	-5095
▁Türkmen	-5096
olis	-5097
fat	-5098
say	-5099
▁arke	-5100
ting	-5101
▁sivil	-5102
▁sembol	-5103
chen	-5104
▁hükümdar	-5105
▁kulübü	-5106
▁Afrikalı	-5107
▁Kazakistan	-5108
▁değerlendir	-5109
▁Ker	-5110
rimi	-5111
ridge	-5112
batısında	-5113
▁Mahalle	-5114
▁numaralı	-5115
▁180	-5116
▁eleme	-5117
▁mezar	-5118
teş	-5119
▁Ul	-5120
▁Soy	-5121
▁kah	-5122
▁Atlet	-5123
▁Lo	-5124
gor	-5125
▁Britanyalı	-5126
oda	-5127
▁kilometre	-5128
▁yarışmacı	-5129
▁ma	-5130
ream	-5131
lemi	-5132
ilecek	-5133
▁yeten	-5134
ave	-5135
ado	-5136
▁pas	-5137
▁erken	-5138
▁Gaziantep	-5139
▁Serie	-5140
)"	-5141
▁Nazi	-5142
▁yardımcısı	-5143
tim	-5144
▁Cezayir	-5145
▁ben	-5146
95	-5147
bar	-5148
▁Aziz	-5149
▁Chic	-5150
▁basın	-5151
▁Jun	-5152
▁Copa	-5153
▁uzman	-5154
▁Abdül	-5155
bas	-5156
antik	-5157
▁derin	-5158
▁Komitesi	-5159
BT	-5160
kün	-5161
lıkla	-5162
▁Özgür	-5163
▁Cel	-5164
▁donan	-5165
65	-5166
leyman	-5167
▁Babası	-5168
▁programı	-5169
▁Kastamonu	-5170
▁korun	-5171
▁kanser	-5172
▁kurucusu	-5173
▁Aj	-5174
zer	-5175
hen	-5176
▁Kole	-5177
ırken	-5178
▁Les	-5179
▁sap	-5180
▁açı	-5181
yasal	-5182
▁aktar	-5183
▁Tam	-5184
alandı	-5185
gun	-5186
▁Rol	-5187
▁family	-5188
▁çoğunlukla	-5189
▁senaryosunu	-5190
▁süt	-5191
▁prot	-5192
▁Tep	-5193
▁kararı	-5194
▁sektör	-5195
▁yapısı	-5196
▁antik	-5197
▁pilot	-5198
▁forvet	-5199
▁odak	-5200
▁Mimar	-5201
lıkları	-5202
▁Vakfı	-5203
▁Show	-5204
▁Stadyumu	-5205
lege	-5206
▁Mi	-5207
▁yarışması	-5208
▁Georg	-5209
▁seri	-5210
▁filmin	-5211
▁takımına	-5212
▁width	-5213
▁yaşadığı	-5214
▁ortalama	-5215
atür	-5216
▁Hizmet	-5217
▁Muharebesi	-5218
▁dos	-5219
▁oynamaktadır	-5220
▁Lim	-5221
▁kralı	-5222
ografik	-5223
▁albümler	-5224
fab	-5225
erler	-5226
▁günlük	-5227
▁yetiştir	-5228
▁Prim	-5229
In	-5230
raz	-5231
ement	-5232
▁1946	-5233
▁süren	-5234
▁malzem	-5235
▁Studi	-5236
▁yönetimi	-5237
söz	-5238
▁Koca	-5239
etin	-5240
▁FA	-5241
▁Ray	-5242
▁oynayan	-5243
▁Kah	-5244
▁konusu	-5245
ute	-5246
▁str	-5247
ücret	-5248
▁Amatör	-5249
▁klip	-5250
cilik	-5251
▁İsveçli	-5252
▁Bosna	-5253
field	-5254
▁kara	-5255
▁Yardımcı	-5256
▁geçirdi	-5257
▁klasik	-5258
▁bitirdi	-5259
kınma	-5260
pınar	-5261
ardin	-5262
▁hesap	-5263
rie	-5264
tiler	-5265
ulları	-5266
▁Adı	-5267
▁vur	-5268
▁Yerleş	-5269
ekim	-5270
▁aksiyon	-5271
osa	-5272
▁Mary	-5273
rad	-5274
ike	-5275
▁eg	-5276
adeniz	-5277
▁danış	-5278
▁başlamış	-5279
▁1952	-5280
▁meclis	-5281
▁Viyana	-5282
▁Süleyman	-5283
68	-5284
▁Ara	-5285
▁Tro	-5286
roid	-5287
ayla	-5288
chester	-5289
▁şid	-5290
34	-5291
▁du	-5292
ilin	-5293
▁best	-5294
▁depr	-5295
▁vermiştir	-5296
▁Mont	-5297
▁sayfası	-5298
▁Na	-5299
ugh	-5300
▁taşındı	-5301
▁kadınlar	-5302
▁Ni	-5303
▁Nobel	-5304
▁köyün	-5305
▁ücret	-5306
üme	-5307
imini	-5308
▁Louis	-5309
▁doğan	-5310
▁üyesidir	-5311
şiv	-5312
▁Rize	-5313
▁Filmin	-5314
ys	-5315
▁pr	-5316
▁ihtiy	-5317
▁belediyeleri	-5318
tılı	-5319
▁serisi	-5320
▁filmde	-5321
▁mezunu	-5322
▁Hey	-5323
▁Ala	-5324
oyun	-5325
içe	-5326
iskop	-5327
▁takımın	-5328
▁kaf	-5329
▁Çanakkale	-5330
▁özellikleri	-5331
▁emekli	-5332
uri	-5333
▁İdari	-5334
▁cep	-5335
sem	-5336
elerini	-5337
lıdır	-5338
▁1948	-5339
▁Hırvatistan	-5340
▁Victor	-5341
ılış	-5342
▁2005'	-5343
▁mang	-5344
▁Motor	-5345
▁Reg	-5346
▁Inter	-5347
▁dışı	-5348
▁toplamda	-5349
▁Nij	-5350
ısız	-5351
▁maçları	-5352
▁ır	-5353
ville	-5354
cük	-5355
▁standart	-5356
idro	-5357
▁Joseph	-5358
▁kurt	-5359
fe	-5360
vel	-5361
imli	-5362
apın	-5363
mur	-5364
ıb	-5365
▁Step	-5366
▁diş	-5367
ağın	-5368
▁sağlar	-5369
bilir	-5370
mey	-5371
▁kullanıldı	-5372
ğına	-5373
▁oluşturan	-5374
▁1953	-5375
▁Rap	-5376
▁altına	-5377
▁yayınladı	-5378
▁yaşındayken	-5379
Av	-5380
▁bilimsel	-5381
▁yaptır	-5382
▁partiler	-5383
▁kod	-5384
▁Voleybol	-5385
menler	-5386
▁metr	-5387
▁yayınlanmıştır	-5388
▁tutuk	-5389
▁lideri	-5390
▁vermektedir	-5391
▁1940	-5392
▁....	-5393
cus	-5394
HP	-5395
▁kurtar	-5396
eyrek	-5397
▁Karadeniz	-5398
sine	-5399
▁bomb	-5400
itar	-5401
omo	-5402
▁Bet	-5403
▁1950'	-5404
▁BA	-5405
emli	-5406
▁Atletizm	-5407
aklar	-5408
79	-5409
▁kadros	-5410
gcolor	-5411
▁test	-5412
▁fonksiyon	-5413
▁Ticaret	-5414
lamaktadır	-5415
▁aracılığı	-5416
▁International	-5417
▁Haç	-5418
film	-5419
▁Kav	-5420
▁Makedonya	-5421
▁Gazi	-5422
▁Ang	-5423
▁Örneğin	-5424
chi	-5425
▁Pek	-5426
▁Nok	-5427
▁Kafk	-5428
▁Kayseri	-5429
▁uzaklıkta	-5430
-10	-5431
▁dem	-5432
mel	-5433
amet	-5434
▁Kulübü	-5435
▁Des	-5436
▁Ba	-5437
▁oranı	-5438
▁çalışmaya	-5439
▁Bakü	-5440
ila	-5441
▁devr	-5442
▁Görev	-5443
▁kendini	-5444
avy	-5445
ship	-5446
iki	-5447
49	-5448
ов	-5449
▁Jim	-5450
▁onay	-5451
▁sağlayan	-5452
▁Komünist	-5453
rama	-5454
▁Ödüller	-5455
▁adamı	-5456
▁Kullan	-5457
ouse	-5458
doğan	-5459
▁Sor	-5460
ikal	-5461
duc	-5462
▁fab	-5463
▁etraf	-5464
▁alınan	-5465
▁Köpr	-5466
▁Tekn	-5467
▁Listesi	-5468
kim	-5469
▁Modern	-5470
ilerde	-5471
▁Bununla	-5472
esun	-5473
▁plak	-5474
ğından	-5475
▁us	-5476
▁American	-5477
iga	-5478
eyahat	-5479
▁toplan	-5480
ding	-5481
▁Hon	-5482
55	-5483
langıçta	-5484
liye	-5485
▁bile	-5486
onz	-5487
ower	-5488
▁Yağ	-5489
kurgu	-5490
▁1944	-5491
okulu	-5492
▁Smith	-5493
▁Sez	-5494
="2	-5495
doğusunda	-5496
▁TRT	-5497
▁eserleri	-5498
ükle	-5499
▁Ür	-5500
▁Bern	-5501
▁AFC	-5502
▁Mid	-5503
▁Yılmaz	-5504
▁kanun	-5505
▁Mol	-5506
yse	-5507
▁miktar	-5508
▁Savunma	-5509
▁Dep	-5510
1 	-5511
▁kaybetti	-5512
▁Sayımı	-5513
▁vak	-5514
▁Dört	-5515
▁festiv	-5516
▁tor	-5517
asıl	-5518
▁davran	-5519
▁Chicago	-5520
▁Düş	-5521
▁yaşadı	-5522
▁Kraliyet	-5523
▁Hem	-5524
▁Jan	-5525
▁öne	-5526
▁Afgan	-5527
▁ettir	-5528
▁İb	-5529
▁komş	-5530
▁Ec	-5531
77	-5532
▁LGBT	-5533
▁Sir	-5534
▁batısında	-5535
▁takımlarından	-5536
ılığını	-5537
ei	-5538
oph	-5539
▁ileri	-5540
▁Ra	-5541
▁Cumhurbaşkanı	-5542
ulur	-5543
ıda	-5544
ülmüştür	-5545
▁karşılık	-5546
kes	-5547
▁Stan	-5548
▁İsmail	-5549
▁Lan	-5550
▁türleri	-5551
▁dokuz	-5552
▁Almanca	-5553
▁kapsamında	-5554
Am	-5555
▁pap	-5556
▁Ann	-5557
▁Evri	-5558
port	-5559
▁Life	-5560
▁tercih	-5561
ersiz	-5562
rian	-5563
▁tanış	-5564
▁Cas	-5565
▁etnik	-5566
▁girmiştir	-5567
▁Parkı	-5568
ekâ	-5569
▁Ref	-5570
▁olma	-5571
web	-5572
▁Cla	-5573
etçileri	-5574
▁muhareb	-5575
▁rest	-5576
▁ülkede	-5577
▁giymektedir	-5578
▁Eleme	-5579
medi	-5580
▁Night	-5581
▁Şen	-5582
▁Ahmed	-5583
)'	-5584
▁Sav	-5585
▁Bi	-5586
▁Henry	-5587
ğinin	-5588
▁sitesinde	-5589
ven	-5590
ıntı	-5591
▁şar	-5592
▁gökada	-5593
▁Hakk	-5594
▁Ep	-5595
▁çoğ	-5596
erkes	-5597
▁Nov	-5598
▁oyunculuk	-5599
faessa	-5600
▁Evrifaessa	-5601
aza	-5602
abilen	-5603
▁kıyısında	-5604
▁Şu	-5605
ello	-5606
▁çevre	-5607
kır	-5608
▁kurulu	-5609
irv	-5610
▁Atlan	-5611
▁unv	-5612
▁Jackson	-5613
▁akım	-5614
▁Fa	-5615
▁dizisinde	-5616
▁etmeye	-5617
▁doğusunda	-5618
▁resim	-5619
okrat	-5620
▁Sekret	-5621
▁Giresun	-5622
uzu	-5623
inn	-5624
▁kalı	-5625
▁aittir	-5626
adağ	-5627
lası	-5628
usuf	-5629
▁0.	-5630
▁şun	-5631
▁gece	-5632
▁send	-5633
ekten	-5634
▁geçiş	-5635
▁3,	-5636
▁hakları	-5637
ii	-5638
▁Ori	-5639
▁kum	-5640
▁Nec	-5641
▁sezonunun	-5642
▁47,	-5643
eketi	-5644
▁179	-5645
▁göstermektedir	-5646
▁Kazan	-5647
ogle	-5648
lılar	-5649
▁gezeg	-5650
ism	-5651
▁Orhan	-5652
▁bağlıdır	-5653
▁gerilim	-5654
▁rast	-5655
yl	-5656
▁Kaynaklar	-5657
▁içindeki	-5658
rey	-5659
▁ölçüde	-5660
=1	-5661
▁Ve	-5662
▁bölün	-5663
vir	-5664
rans	-5665
▁ticari	-5666
▁sk	-5667
▁eseri	-5668
▁SSC	-5669
menin	-5670
▁hafif	-5671
▁Kolomb	-5672
ğretim	-5673
▁kasaba	-5674
▁baskı	-5675
demir	-5676
▁https	-5677
▁artık	-5678
▁süreç	-5679
▁Bek	-5680
▁Du	-5681
▁Anay	-5682
layıcı	-5683
zan	-5684
▁Mev	-5685
▁takımlar	-5686
▁Fır	-5687
▁Yal	-5688
▁org	-5689
log	-5690
▁Karş	-5691
▁ilindeki	-5692
otlar	-5693
▁ib	-5694
▁Hayat	-5695
▁MS	-5696
▁no	-5697
ıza	-5698
▁63	-5699
▁kanat	-5700
▁Buna	-5701
ilenin	-5702
▁IV	-5703
▁Onur	-5704
▁Gençlik	-5705
▁kullanan	-5706
▁Camp	-5707
ropol	-5708
▁1951	-5709
▁Konst	-5710
▁görülen	-5711
▁Tokat	-5712
▁Mahkem	-5713
▁gösterildi	-5714
▁Mass	-5715
luğunu	-5716
ılıç	-5717
▁Albert	-5718
otik	-5719
lenmektedir	-5720
▁hakim	-5721
▁değişikliğinden	-5722
▁kalp	-5723
▁Ömer	-5724
▁Fac	-5725
▁Altı	-5726
▁Arjantinli	-5727
69	-5728
▁Ram	-5729
▁dini	-5730
▁Japan	-5731
▁dilleri	-5732
▁sarı	-5733
▁bölümleri	-5734
▁enerji	-5735
▁Körf	-5736
▁müm	-5737
pt	-5738
▁Kahraman	-5739
itika	-5740
▁özgür	-5741
▁Eserleri	-5742
▁eserler	-5743
▁başta	-5744
▁kullanarak	-5745
▁Die	-5746
▁Hel	-5747
mesinden	-5748
▁sözcü	-5749
cher	-5750
▁Yan	-5751
▁Hacı	-5752
▁takv	-5753
▁eğitimini	-5754
▁Scott	-5755
▁yaşamı	-5756
▁She	-5757
rağı	-5758
▁Dam	-5759
▁stil	-5760
▁Sad	-5761
ozof	-5762
▁Gençler	-5763
▁ac	-5764
▁Compan	-5765
▁Genellikle	-5766
▁Kalkınma	-5767
▁und	-5768
şık	-5769
▁bür	-5770
▁(193	-5771
▁Ki	-5772
ğren	-5773
alama	-5774
▁Camb	-5775
▁korku	-5776
▁açısından	-5777
▁Fe	-5778
▁meş	-5779
▁birimi	-5780
▁medya	-5781
ilerinde	-5782
▁topluluk	-5783
▁Bost	-5784
▁sürekli	-5785
rown	-5786
▁organizasyon	-5787
istanı	-5788
▁Divisi	-5789
▁antrenör	-5790
▁Nap	-5791
▁2004'	-5792
▁kültürel	-5793
▁ih	-5794
▁romanı	-5795
▁oynamıştır	-5796
▁Bre	-5797
▁Sing	-5798
▁müzisyenler	-5799
.'	-5800
dikleri	-5801
▁barındır	-5802
▁dönüştür	-5803
▁İstatistikleri	-5804
▁Aug	-5805
▁flor	-5806
▁yurt	-5807
uvarı	-5808
▁etkili	-5809
▁çalışmalar	-5810
uncu	-5811
▁Hastan	-5812
mamış	-5813
▁sağlık	-5814
▁terk	-5815
osh	-5816
sak	-5817
olar	-5818
▁atletleri	-5819
▁Belediyespor	-5820
▁şef	-5821
▁1943	-5822
▁Ses	-5823
▁pu	-5824
▁(,	-5825
unlu	-5826
▁rekor	-5827
asyonlar	-5828
▁durumda	-5829
lili	-5830
▁karış	-5831
▁nerede	-5832
çev	-5833
▁1949	-5834
▁Nic	-5835
▁Song	-5836
▁Royal	-5837
led	-5838
▁birim	-5839
▁verilir	-5840
▁başlarında	-5841
hol	-5842
▁kalmıştır	-5843
▁yarışmacıları	-5844
▁Konuyla	-5845
▁kullanımı	-5846
▁yerde	-5847
▁Ekonomi	-5848
▁kutusu	-5849
ety	-5850
▁tanıtılan	-5851
▁bö	-5852
heim	-5853
▁Plat	-5854
▁47,5 	-5855
▁(18,7	-5856
▁Carl	-5857
▁ilaç	-5858
▁macera	-5859
kol	-5860
aket	-5861
▁Som	-5862
lında	-5863
▁Çorum	-5864
isiyle	-5865
▁koleksiyon	-5866
▁35	-5867
▁ikinc	-5868
▁Şiir	-5869
▁siyasetçileri	-5870
abor	-5871
▁adayı	-5872
geç	-5873
▁kesin	-5874
▁Latin	-5875
▁kendisini	-5876
▁EP	-5877
▁alanda	-5878
bay	-5879
▁Saf	-5880
▁istem	-5881
▁makam	-5882
▁İdar	-5883
▁Manisa	-5884
▁mümkün	-5885
▁|199	-5886
▁şiddet	-5887
ric	-5888
▁(2006)	-5889
▁biriydi	-5890
▁Berk	-5891
etim	-5892
▁katılımcı	-5893
▁Özellikle	-5894
▁Üniversite	-5895
▁1947	-5896
ban	-5897
▁fin	-5898
▁Şeh	-5899
▁endüstr	-5900
▁gazeteci	-5901
▁Sand	-5902
ternatif	-5903
ülük	-5904
▁Koz	-5905
▁komün	-5906
▁Kralı	-5907
▁(2007)	-5908
▁diye	-5909
▁tıp	-5910
nak	-5911
2),	-5912
▁Eleştir	-5913
▁niş	-5914
▁ilgi	-5915
▁katılan	-5916
▁aracılığıyla	-5917
▁dolay	-5918
▁Zey	-5919
ekilliği	-5920
sının	-5921
▁Fizik	-5922
▁Saray	-5923
▁4,	-5924
ando	-5925
rip	-5926
lüğünü	-5927
▁(2005)	-5928
▁aileden	-5929
feder	-5930
▁Yusuf	-5931
lasman	-5932
▁senarist	-5933
▁Laz	-5934
▁olmadı	-5935
▁...	-5936
▁Barış	-5937
▁getirildi	-5938
▁sağlamak	-5939
▁katılmıştır	-5940
▁Berg	-5941
▁Edir	-5942
▁Kurtuluş	-5943
▁Topluluğu	-5944
gon	-5945
▁hâl	-5946
▁kaynağı	-5947
▁vb	-5948
▁Rod	-5949
▁Kişisel	-5950
losu	-5951
▁ölümünden	-5952
azığ	-5953
▁yetiş	-5954
▁tarihlerinde	-5955
▁etkilen	-5956
▁baraj	-5957
▁Madalyası	-5958
arlı	-5959
▁kişiden	-5960
▁birisidir	-5961
▁yönetmenleri	-5962
▁mol	-5963
▁1941	-5964
ía	-5965
▁terim	-5966
hel	-5967
kur	-5968
▁Dağları	-5969
▁Rey	-5970
▁hen	-5971
▁90	-5972
imiz	-5973
▁Nijer	-5974
▁Ardından	-5975
lup	-5976
▁imzaladı	-5977
▁Oh	-5978
▁mutfağı	-5979
laşma	-5980
▁Up	-5981
▁piyan	-5982
▁Hun	-5983
-15	-5984
ture	-5985
▁aktör	-5986
▁yazılmış	-5987
ason	-5988
▁Live	-5989
▁Suudi	-5990
uva	-5991
▁okudu	-5992
▁Bran	-5993
▁sebebiyle	-5994
▁maçına	-5995
▁demiryolu	-5996
▁tren	-5997
▁Arabistan	-5998
ets	-5999
▁Üçüncü	-6000
▁Android	-6001
▁Mehmed	-6002
▁Grammy	-6003
▁Cent	-6004
cin	-6005
▁açıkladı	-6006
▁Ke	-6007
▁karakterleri	-6008
▁É	-6009
bil	-6010
▁Tanrı	-6011
irin	-6012
bgcolor	-6013
▁Avusturyalı	-6014
▁Hac	-6015
▁hep	-6016
▁ismini	-6017
;"	-6018
kender	-6019
BS	-6020
▁numara	-6021
▁1925	-6022
unk	-6023
▁ton	-6024
▁yenil	-6025
AR	-6026
lenme	-6027
▁Elazığ	-6028
▁yaprak	-6029
▁mutfağ	-6030
iyade	-6031
ahisar	-6032
▁Türkç	-6033
▁albümüdür	-6034
▁BBC	-6035
ımcılığı	-6036
▁yarışma	-6037
▁Riv	-6038
▁Yazar	-6039
74	-6040
▁Malat	-6041
▁Google	-6042
lic	-6043
uğla	-6044
ülk	-6045
aşık	-6046
leyici	-6047
▁yerleri	-6048
▁büyü	-6049
lığa	-6050
▁görüle	-6051
▁diy	-6052
irler	-6053
ahya	-6054
▁Bölgesel	-6055
▁yayınlan	-6056
▁ban	-6057
▁Karay	-6058
▁Samsung	-6059
▁Güvenlik	-6060
76	-6061
▁bilgiler	-6062
▁Company	-6063
mac	-6064
▁Edward	-6065
▁başladığı	-6066
▁kart	-6067
▁Turu	-6068
▁(2008)	-6069
lé	-6070
▁Artvin	-6071
▁Konser	-6072
▁alfab	-6073
▁istifa	-6074
▁Daniel	-6075
ady	-6076
▁şim	-6077
▁hükûmeti	-6078
▁AS	-6079
ison	-6080
▁göv	-6081
aga	-6082
yaspor	-6083
▁person	-6084
ional	-6085
▁AC	-6086
▁Kanat	-6087
▁Bağımsız	-6088
ations	-6089
▁kural	-6090
wig	-6091
ider	-6092
yordu	-6093
▁bünyesinde	-6094
mat	-6095
▁Sınıf	-6096
▁Ty	-6097
▁yaparak	-6098
oman	-6099
▁bayrak	-6100
▁mezunudur	-6101
rin	-6102
ery	-6103
▁ruh	-6104
▁Wat	-6105
▁ide	-6106
▁finale	-6107
▁Bud	-6108
▁1936	-6109
▁Jer	-6110
anlığına	-6111
▁Değ	-6112
▁bunu	-6113
▁versiyonu	-6114
▁ham	-6115
▁araya	-6116
▁ölümüne	-6117
▁Leon	-6118
▁yaşamaktadır	-6119
avar	-6120
▁Koç	-6121
▁Kum	-6122
entbol	-6123
▁ref	-6124
▁Kırım	-6125
▁çekir	-6126
▁Asyalı	-6127
▁etkinlik	-6128
▁Hab	-6129
▁kış	-6130
▁Yaşam	-6131
▁kuy	-6132
▁Zelanda	-6133
gesi	-6134
▁Big	-6135
▁civarında	-6136
▁Mahallenin	-6137
99	-6138
oul	-6139
▁ede	-6140
▁sonuçları	-6141
▁bulunmayan	-6142
▁Azeri	-6143
▁Ca	-6144
alye	-6145
▁Fab	-6146
TO	-6147
zade	-6148
lardı	-6149
▁1938	-6150
▁1939	-6151
▁uzan	-6152
▁Doğan	-6153
▁yazılmıştır	-6154
▁500	-6155
▁Universe	-6156
amin	-6157
▁70	-6158
awa	-6159
olk	-6160
▁Sib	-6161
▁Pakistan	-6162
=1|	-6163
▁Yun	-6164
günümüz	-6165
▁mahallesi	-6166
amo	-6167
▁Hy	-6168
▁Maria	-6169
▁Sloven	-6170
▁onur	-6171
▁tane	-6172
mun	-6173
top	-6174
▁çeş	-6175
memiş	-6176
▁tesis	-6177
▁kli	-6178
▁1930	-6179
▁van	-6180
▁yeşil	-6181
ku	-6182
odoks	-6183
▁(2004)	-6184
ador	-6185
▁romantik	-6186
▁1992'	-6187
▁(2009)	-6188
="2"|	-6189
Bir	-6190
▁yapmaya	-6191
▁filozof	-6192
▁Mih	-6193
▁çalıştır	-6194
istin	-6195
je	-6196
▁),	-6197
▁sav	-6198
▁geçmiştir	-6199
▁dağılım	-6200
▁aşam	-6201
▁beşinci	-6202
erv	-6203
mıştı	-6204
▁80	-6205
▁Kanal	-6206
ekteydi	-6207
▁ulaştı	-6208
MS	-6209
dık	-6210
▁Pier	-6211
▁Organ	-6212
▁Bob	-6213
▁Just	-6214
▁seslendirme	-6215
▁ann	-6216
▁(2002)	-6217
▁Kurumu	-6218
▁CA	-6219
▁sur	-6220
lastı	-6221
▁yılda	-6222
▁Temsil	-6223
▁gazete	-6224
▁parlak	-6225
lemiştir	-6226
okul	-6227
▁Haw	-6228
▁Rep	-6229
▁Antlaşması	-6230
tadan	-6231
▁veri	-6232
bilim	-6233
▁ligi	-6234
ody	-6235
▁İskender	-6236
▁Sus	-6237
▁vil	-6238
▁kuruluşlar	-6239
eus	-6240
ito	-6241
▁kabil	-6242
▁rahat	-6243
▁Wr	-6244
▁amaçlı	-6245
58	-6246
▁almak	-6247
▁Birleşmiş	-6248
tero	-6249
imari	-6250
çılık	-6251
▁1999'	-6252
▁ekran	-6253
▁seyahat	-6254
abilmektedir	-6255
32	-6256
ahiy	-6257
▁taşıtlar	-6258
▁(2)	-6259
IA	-6260
▁üretimi	-6261
▁içine	-6262
oung	-6263
▁reklam	-6264
▁güreşçi	-6265
▁Yugoslavya	-6266
ques	-6267
▁(1)	-6268
▁Kütahya	-6269
▁Teks	-6270
▁olacak	-6271
III	-6272
Alman	-6273
▁doğrul	-6274
ook	-6275
▁Özbek	-6276
46	-6277
çılar	-6278
üyor	-6279
▁eren	-6280
▁Ama	-6281
▁yılın	-6282
abilecek	-6283
anlara	-6284
▁CF	-6285
▁Je	-6286
▁kg	-6287
▁istatistikleri	-6288
▁dönemin	-6289
itt	-6290
▁olmadığı	-6291
▁2002'	-6292
▁katıldığı	-6293
▁Ox	-6294
▁etik	-6295
="#	-6296
▁Demografi	-6297
▁müsabakaları	-6298
▁forması	-6299
erli	-6300
▁görüldü	-6301
ies	-6302
▁College	-6303
mür	-6304
oon	-6305
▁Bes	-6306
atıcı	-6307
▁Time	-6308
▁azal	-6309
▁SS	-6310
▁civil	-6311
▁Bankası	-6312
ımları	-6313
▁tehlik	-6314
▁Yerleşim	-6315
lob	-6316
▁kariyerini	-6317
"'	-6318
▁Nar	-6319
lemesi	-6320
▁güncel	-6321
▁Oblastı	-6322
▁Pictures	-6323
▁Kars	-6324
▁kadro	-6325
▁prefektör	-6326
▁1935	-6327
▁düğ	-6328
etler	-6329
▁(2001)	-6330
▁festival	-6331
Br	-6332
▁Pazar	-6333
▁2:	-6334
▁Johan	-6335
▁Oli	-6336
▁köyünde	-6337
▁elektronik	-6338
▁adlandırılan	-6339
▁Böylece	-6340
iat	-6341
▁disk	-6342
▁Lüb	-6343
isindeki	-6344
▁belgesel	-6345
▁şampiyonluğu	-6346
amik	-6347
▁kapasit	-6348
▁Out	-6349
▁önde	-6350
▁Metro	-6351
▁Dizi	-6352
▁çub	-6353
▁sürdü	-6354
Yunan	-6355
▁2003'	-6356
▁temsilcisi	-6357
atan	-6358
▁tanınan	-6359
▁yakınlarında	-6360
▁parish	-6361
menleri	-6362
▁çıkardı	-6363
▁Sec	-6364
▁Çank	-6365
bah	-6366
kal	-6367
igür	-6368
▁School	-6369
31	-6370
▁bozuk	-6371
its	-6372
▁açtı	-6373
▁ordusu	-6374
▁Arapça	-6375
▁neredeyse	-6376
ult	-6377
ülte	-6378
▁dolar	-6379
ozgat	-6380
raj	-6381
▁yapar	-6382
ск	-6383
-12	-6384
▁koruma	-6385
▁prens	-6386
▁grubunun	-6387
FF	-6388
▁kişisel	-6389
▁hayatına	-6390
süz	-6391
▁göm	-6392
▁Hall	-6393
ebe	-6394
ılıp	-6395
▁ince	-6396
▁özelliği	-6397
▁Gab	-6398
eff	-6399
▁Eb	-6400
▁Pers	-6401
▁Atina	-6402
▁kimya	-6403
▁kadrosu	-6404
ladık	-6405
lendirme	-6406
▁1942	-6407
▁çekildi	-6408
erp	-6409
▁tanınır	-6410
reli	-6411
▁tören	-6412
▁Birçok	-6413
▁Parlamentosu	-6414
iner	-6415
isc	-6416
MA	-6417
esaj	-6418
▁asit	-6419
▁CON	-6420
▁Gil	-6421
▁Indi	-6422
▁mahk	-6423
▁ikili	-6424
▁Litvanya	-6425
56	-6426
DA	-6427
Er	-6428
▁bazıları	-6429
▁Çam	-6430
▁bıraktı	-6431
▁Ortodoks	-6432
▁Yok	-6433
▁modeller	-6434
▁Konstantin	-6435
ımada	-6436
Station	-6437
▁erkekler	-6438
▁sert	-6439
▁1934	-6440
Ch	-6441
▁Afganistan	-6442
▁İktis	-6443
▁editör	-6444
▁ailenin	-6445
▁makal	-6446
▁seviye	-6447
▁etkisi	-6448
igan	-6449
▁Lar	-6450
▁metin	-6451
mesinin	-6452
▁Özerk	-6453
▁prodük	-6454
▁fos	-6455
▁Teksas	-6456
ünc	-6457
▁uzunluğunda	-6458
siler	-6459
▁Bart	-6460
▁haned	-6461
▁tedav	-6462
▁Si	-6463
▁Afyon	-6464
▁tartış	-6465
iba	-6466
▁Amér	-6467
▁Şanlı	-6468
ırh	-6469
▁eriş	-6470
▁İranlı	-6471
tesi	-6472
ordin	-6473
▁karakteri	-6474
▁Derg	-6475
▁Santa	-6476
▁Dor	-6477
dal	-6478
▁dakika	-6479
grad	-6480
▁teslim	-6481
▁Ky	-6482
▁Aleks	-6483
▁Tasar	-6484
▁(2003)	-6485
oper	-6486
▁Bunlar	-6487
▁dijital	-6488
fan	-6489
▁Çeşit	-6490
üce	-6491
celen	-6492
▁henüz	-6493
▁ölümü	-6494
▁División	-6495
omp	-6496
▁görevine	-6497
▁akademisyen	-6498
▁Anim	-6499
ebi	-6500
▁Williams	-6501
▁kâ	-6502
Le	-6503
▁İlç	-6504
iko	-6505
▁pandem	-6506
▁tedavi	-6507
▁men	-6508
▁serileri	-6509
işkin	-6510
▁kaybeden	-6511
▁ap	-6512
▁cinsel	-6513
▁ا	-6514
▁Baba	-6515
▁hala	-6516
▁Official	-6517
▁Edirne	-6518
▁Yozgat	-6519
▁güvenlik	-6520
▁Manchester	-6521
▁oran	-6522
pen	-6523
rowspan	-6524
▁İskoçya	-6525
▁Etap	-6526
▁hiss	-6527
▁Pa	-6528
▁kanıt	-6529
▁karakterini	-6530
▁#	-6531
dun	-6532
esiydi	-6533
ble	-6534
▁Ail	-6535
▁finans	-6536
▁32	-6537
eton	-6538
▁yüzden	-6539
Bu	-6540
ario	-6541
▁Que	-6542
▁ödülünü	-6543
▁(1):	-6544
▁rep	-6545
temelen	-6546
tris	-6547
▁yerler	-6548
▁hakkı	-6549
▁sekret	-6550
▁gruplar	-6551
avuz	-6552
▁İlçe	-6553
▁América	-6554
▁bilimkurgu	-6555
▁Formula	-6556
42	-6557
▁Buz	-6558
▁üstlendi	-6559
▁tanımlanan	-6560
eck	-6561
liğin	-6562
▁website	-6563
▁Seb	-6564
47	-6565
▁Sinan	-6566
▁Mahkemesi	-6567
▁Hans	-6568
▁Donan	-6569
▁güreşçiler	-6570
iste	-6571
etleri	-6572
VD	-6573
▁esn	-6574
▁Sanatlar	-6575
lot	-6576
▁sinem	-6577
▁sürec	-6578
▁sürümü	-6579
▁başv	-6580
▁sözleş	-6581
▁Kalesi	-6582
▁<	-6583
▁Ye	-6584
▁Florida	-6585
uluğ	-6586
▁kilise	-6587
85	-6588
▁hac	-6589
▁Viet	-6590
▁Filip	-6591
▁yasak	-6592
apı	-6593
▁Radyo	-6594
▁kullanılabilir	-6595
▁belli	-6596
▁Yunanca	-6597
▁güc	-6598
▁1998'	-6599
▁tuz	-6600
▁mevki	-6601
▁Dub	-6602
▁Gön	-6603
ude	-6604
▁ikti	-6605
▁sonuçlar	-6606
▁Hill	-6607
▁Sk	-6608
▁içi	-6609
▁günümüze	-6610
ology	-6611
▁ayrıl	-6612
▁hapis	-6613
▁içerik	-6614
▁Seg	-6615
▁sonlarında	-6616
SK	-6617
▁Hil	-6618
▁Örgüt	-6619
▁Law	-6620
▁How	-6621
▁eylem	-6622
▁bölgesine	-6623
Türkçe	-6624
▁Nokia	-6625
incan	-6626
aborat	-6627
▁gizli	-6628
▁PlayStation	-6629
▁numaraya	-6630
▁Komutanlığı	-6631
ymp	-6632
▁başkent	-6633
rum	-6634
▁Blo	-6635
▁durdur	-6636
emix	-6637
▁Rek	-6638
▁Tatar	-6639
laşık	-6640
▁devre	-6641
▁çünkü	-6642
▁Green	-6643
▁saray	-6644
CAF	-6645
▁English	-6646
çisi	-6647
ayarak	-6648
MD	-6649
ela	-6650
▁Um	-6651
▁hâ	-6652
▁içeri	-6653
▁yönetilen	-6654
▁egemen	-6655
▁ailesinin	-6656
▁bor	-6657
▁götür	-6658
▁inşaat	-6659
▁milyar	-6660
9 	-6661
▁Ku	-6662
▁çalışması	-6663
▁otomobiller	-6664
dit	-6665
▁Milliyet	-6666
▁kuşat	-6667
▁Pir	-6668
▁Sum	-6669
▁vir	-6670
sis	-6671
▁basit	-6672
▁diren	-6673
▁tenis	-6674
▁yerli	-6675
▁işletim	-6676
▁savunma	-6677
500	-6678
SCO	-6679
▁Soc	-6680
▁History	-6681
▁insanların	-6682
▁Meg	-6683
uguay	-6684
▁yavaş	-6685
▁Küre	-6686
▁Luc	-6687
▁alınmıştır	-6688
▁İstatistik	-6689
ısal	-6690
▁renkli	-6691
▁Vas	-6692
▁çağr	-6693
▁Bisiklet	-6694
abet	-6695
▁Sci	-6696
▁Siyasal	-6697
ıyla	-6698
▁düşman	-6699
43	-6700
▁politikacı	-6701
gn	-6702
larus	-6703
▁Puan	-6704
▁Town	-6705
Or	-6706
▁ep	-6707
ülür	-6708
▁Cast	-6709
ín	-6710
türk	-6711
▁adım	-6712
▁Harp	-6713
▁(2010)	-6714
▁Yardımcısı	-6715
▁1933	-6716
▁nak	-6717
anlığını	-6718
▁sözcük	-6719
▁Mağ	-6720
▁efsan	-6721
etti	-6722
▁İşlet	-6723
▁Afrikan	-6724
low	-6725
▁dakik	-6726
▁Disney	-6727
▁geldiği	-6728
lence	-6729
portaj	-6730
paz	-6731
▁Ege	-6732
▁sene	-6733
▁Oda	-6734
▁Sub	-6735
▁Uzay	-6736
▁olduktan	-6737
die	-6738
iği	-6739
able	-6740
▁Başbakan	-6741
leyic	-6742
▁maddesi	-6743
▁te	-6744
▁Askerî	-6745
▁müzikal	-6746
▁üniversite	-6747
ular	-6748
▁yakal	-6749
▁Mahallesi	-6750
, 	-6751
ан	-6752
emiş	-6753
▁halkı	-6754
öportaj	-6755
▁Aslan	-6756
▁ordus	-6757
inia	-6758
▁ters	-6759
ree	-6760
vik	-6761
▁yarışı	-6762
▁Clar	-6763
▁general	-6764
▁Şanlıur	-6765
▁İt	-6766
▁döv	-6767
▁galib	-6768
▁süper	-6769
100	-6770
▁sc	-6771
▁girişim	-6772
Frans	-6773
▁almaya	-6774
rick	-6775
▁Group	-6776
iskopos	-6777
▁Vlad	-6778
ücut	-6779
aska	-6780
▁süs	-6781
▁başardı	-6782
▁altındaki	-6783
▁erdi	-6784
▁Belçikalı	-6785
▁Nam	-6786
ersey	-6787
lerce	-6788
▁Brown	-6789
▁noktası	-6790
gör	-6791
▁Karl	-6792
▁WW	-6793
▁Çat	-6794
▁2023'	-6795
▁play	-6796
1),	-6797
▁Bilgiler	-6798
▁gerçekleşen	-6799
▁2001'	-6800
▁edin	-6801
000'	-6802
▁saf	-6803
▁Society	-6804
▁Bül	-6805
▁978	-6806
▁uyarlanan	-6807
▁mu	-6808
▁Championship	-6809
karahisar	-6810
▁giden	-6811
▁genişlet	-6812
▁Bib	-6813
▁Birlik	-6814
▁Harv	-6815
stem	-6816
▁Post	-6817
lardaki	-6818
▁köyde	-6819
"),	-6820
ance	-6821
▁Üyeliği	-6822
▁1991'	-6823
▁36	-6824
▁dayanan	-6825
SO	-6826
▁Holly	-6827
▁birisi	-6828
▁ayrılmıştır	-6829
eyle	-6830
gisi	-6831
▁yere	-6832
▁sos	-6833
mes	-6834
eva	-6835
▁Teş	-6836
▁Vad	-6837
▁böylece	-6838
▁İçişleri	-6839
akal	-6840
▁bölgenin	-6841
▁Young	-6842
▁Uğ	-6843
▁cilt	-6844
▁Leg	-6845
▁Altay	-6846
▁aracı	-6847
▁ürünleri	-6848
mara	-6849
▁Pub	-6850
▁Sarayı	-6851
ross	-6852
▁Sok	-6853
▁kimyasal	-6854
ımıyla	-6855
adiş	-6856
▁1937	-6857
▁nasıl	-6858
ardo	-6859
▁sıv	-6860
yc	-6861
-14	-6862
▁gövde	-6863
▁Konfeder	-6864
▁iletişim	-6865
▁Alexander	-6866
▁geçici	-6867
▁babasının	-6868
ept	-6869
itch	-6870
edeni	-6871
--	-6872
ifik	-6873
▁Vietnam	-6874
▁Uç	-6875
▁1997'	-6876
▁isyan	-6877
ilme	-6878
▁Sanayi	-6879
▁sistemleri	-6880
▁şah	-6881
makam	-6882
▁Çevre	-6883
▁aj	-6884
▁Rev	-6885
▁açıldı	-6886
▁Pl	-6887
▁alış	-6888
▁zirv	-6889
▁hizmete	-6890
CI	-6891
▁45	-6892
▁1926	-6893
▁ilişkiler	-6894
▁mitoloj	-6895
▁Tav	-6896
ımcılığını	-6897
▁parçasıdır	-6898
▁olaylar	-6899
▁Erzincan	-6900
NESCO	-6901
▁halka	-6902
ulus	-6903
▁cami	-6904
▁Selim	-6905
▁Good	-6906
▁edilmesi	-6907
▁olduğundan	-6908
cio	-6909
▁Fel	-6910
▁Arka	-6911
▁Endon	-6912
▁parlament	-6913
uda	-6914
▁düzenli	-6915
▁ıs	-6916
▁Cha	-6917
▁net	-6918
▁özerk	-6919
▁sahipti	-6920
▁(16	-6921
▁Bad	-6922
▁yetk	-6923
'''	-6924
mişti	-6925
▁idam	-6926
▁(2011)	-6927
▁seçilen	-6928
mos	-6929
▁Sof	-6930
ükleer	-6931
▁yarar	-6932
▁sonradan	-6933
aport	-6934
▁Şili	-6935
▁kahram	-6936
elidir	-6937
▁yatır	-6938
▁Simon	-6939
ürt	-6940
blem	-6941
▁God	-6942
▁vol	-6943
atur	-6944
ulması	-6945
▁güzellik	-6946
▁söyledi	-6947
▁Abdullah	-6948
yasından	-6949
▁pet	-6950
▁sabit	-6951
▁müziğini	-6952
▁siyasetçidir	-6953
ranç	-6954
▁Nil	-6955
▁Önc	-6956
gresi	-6957
ović	-6958
▁hayvanlar	-6959
▁Cadde	-6960
▁yaşamış	-6961
▁Kamu	-6962
▁Estonya	-6963
rov	-6964
▁Takson	-6965
▁albümün	-6966
▁giyen	-6967
▁Sakarya	-6968
win	-6969
sky	-6970
▁Rog	-6971
▁benzeri	-6972
86	-6973
▁Sant	-6974
▁(4	-6975
▁Cin	-6976
▁Gor	-6977
▁Erken	-6978
▁Federal	-6979
▁besteci	-6980
-16	-6981
▁Dun	-6982
▁dök	-6983
▁Meydan	-6984
▁Dig	-6985
▁formasını	-6986
▁Belarus	-6987
▁öldürüldü	-6988
ulama	-6989
▁kamera	-6990
▁Beşinci	-6991
▁Maz	-6992
▁Jersey	-6993
ps	-6994
atlar	-6995
▁geçirdiği	-6996
-11	-6997
▁kanalı	-6998
87	-6999
alli	-7000
asan	-7001
▁bask	-7002
▁göreve	-7003
▁unvanını	-7004
▁defans	-7005
try	-7006
▁üs	-7007
▁tüf	-7008
ayeti	-7009
▁ilgilen	-7010
▁kendine	-7011
po	-7012
▁tüket	-7013
▁Bang	-7014
▁raki	-7015
▁güneş	-7016
lit	-7017
▁Tol	-7018
ayolu	-7019
▁artır	-7020
lığında	-7021
▁Dik	-7022
▁feder	-7023
▁UNESCO	-7024
▁1996'	-7025
tifak	-7026
▁YouT	-7027
▁fesh	-7028
▁Boston	-7029
onun	-7030
▁Boğaz	-7031
▁Hanım	-7032
▁kalma	-7033
▁Üsk	-7034
erisi	-7035
ibe	-7036
▁Serbest	-7037
▁muhal	-7038
▁orada	-7039
▁Venedik	-7040
én	-7041
CACAF	-7042
▁biçimde	-7043
59	-7044
▁işlev	-7045
▁yaşan	-7046
▁(2000)	-7047
▁denk	-7048
▁yazılımları	-7049
▁mel	-7050
estra	-7051
▁dergi	-7052
▁Yukarı	-7053
▁görülmektedir	-7054
▁Yorkshire	-7055
▁Columb	-7056
ete	-7057
▁şöyle	-7058
text	-7059
ull	-7060
ıyı	-7061
▁araz	-7062
▁taht	-7063
▁teknoloj	-7064
oyu	-7065
▁viz	-7066
▁Euro	-7067
▁Venez	-7068
▁Kosova	-7069
▁alanları	-7070
▁Performan	-7071
▁ir	-7072
incir	-7073
▁tablosu	-7074
▁İns	-7075
▁kont	-7076
▁öğrenci	-7077
▁etme	-7078
düz	-7079
elerden	-7080
▁öyk	-7081
▁Ceza	-7082
▁turu	-7083
▁unvanı	-7084
▁kurgusal	-7085
veya	-7086
soci	-7087
erçev	-7088
tikten	-7089
▁Chris	-7090
▁adlandırılır	-7091
ution	-7092
▁ert	-7093
▁birden	-7094
▁Det	-7095
▁ekibi	-7096
▁Karadağ	-7097
Mar	-7098
mond	-7099
▁Nas	-7100
▁kuşlar	-7101
▁Alf	-7102
▁Rusça	-7103
urdu	-7104
▁aşırı	-7105
▁familyasına	-7106
▁uygulam	-7107
▁Stre	-7108
▁Kadro	-7109
▁nahiy	-7110
▁benim	-7111
gız	-7112
▁mavi	-7113
▁Tarım	-7114
▁makin	-7115
ayık	-7116
".	-7117
="3	-7118
▁enf	-7119
▁1924	-7120
▁tahta	-7121
▁Oper	-7122
▁Çık	-7123
▁ilişkin	-7124
▁kullandı	-7125
ersek	-7126
maşık	-7127
▁aziz	-7128
▁esas	-7129
▁barış	-7130
▁Win	-7131
▁Oğuz	-7132
▁kesim	-7133
▁Matt	-7134
▁Küb	-7135
▁Maj	-7136
▁Haber	-7137
▁Wolf	-7138
▁«	-7139
▁Tony	-7140
▁Gelen	-7141
ısıt	-7142
ferans	-7143
▁Koleji	-7144
bal	-7145
▁Hong	-7146
▁makine	-7147
57	-7148
▁düştü	-7149
▁Çinli	-7150
▁Ron	-7151
abi	-7152
▁arşiv	-7153
▁birbirine	-7154
▁doğmuştur	-7155
lış	-7156
▁(2012)	-7157
▁modeli	-7158
▁(1999)	-7159
▁taslak	-7160
ihan	-7161
▁Jones	-7162
▁evli	-7163
▁molek	-7164
▁suyu	-7165
▁birliği	-7166
▁CONCACAF	-7167
▁yir	-7168
▁astero	-7169
▁fant	-7170
▁Fried	-7171
▁Yazı	-7172
▁solo	-7173
▁sonu	-7174
▁Apple	-7175
▁CE	-7176
▁Award	-7177
▁Üniversit	-7178
work	-7179
▁Bing	-7180
ruk	-7181
▁Muğla	-7182
biy	-7183
▁familyasından	-7184
abeth	-7185
▁tarihte	-7186
▁başkanlık	-7187
▁kanalları	-7188
▁üstün	-7189
darı	-7190
▁Barb	-7191
▁Hik	-7192
maraş	-7193
||2	-7194
ekleri	-7195
▁restor	-7196
▁Arch	-7197
▁Your	-7198
▁Orman	-7199
▁Francisco	-7200
gre	-7201
▁Mr	-7202
▁Jane	-7203
▁Profili	-7204
ista	-7205
▁1930'	-7206
▁Malatya	-7207
▁florası	-7208
▁başlandı	-7209
▁istasyonu	-7210
-17	-7211
Rusça	-7212
arag	-7213
▁%1,	-7214
▁Bronz	-7215
uşu	-7216
▁Vi	-7217
▁rolüyle	-7218
▁bağlandı	-7219
ex	-7220
▁aksine	-7221
▁köyler	-7222
▁Okyanusu	-7223
▁yolcu	-7224
▁Anne	-7225
▁|200	-7226
ağının	-7227
▁Nüfusu	-7228
hisar	-7229
▁buna	-7230
▁tanı	-7231
▁şer	-7232
▁rapor	-7233
▁seyir	-7234
▁sürüldü	-7235
▁dayalı	-7236
▁sağladı	-7237
▁Hu	-7238
beyaz	-7239
▁Ceph	-7240
▁1993'	-7241
▁tamamı	-7242
mamıştır	-7243
▁sendrom	-7244
▁politika	-7245
▁Pi	-7246
tihar	-7247
uydu	-7248
▁Lor	-7249
▁Tut	-7250
▁(1998)	-7251
▁teşkil	-7252
▁Milletvekilliği	-7253
–200	-7254
▁otob	-7255
▁Silahlı	-7256
act	-7257
usya	-7258
▁bölgesinin	-7259
▁Comp	-7260
imir	-7261
hu	-7262
▁Toprak	-7263
ges	-7264
inger	-7265
Amerik	-7266
soy	-7267
sında	-7268
▁çalışır	-7269
alılar	-7270
▁Bugün	-7271
ct	-7272
ağında	-7273
▁danışman	-7274
▁sayılabilir	-7275
Söz	-7276
adel	-7277
ensis	-7278
tions	-7279
imet	-7280
▁prote	-7281
▁Meksikalı	-7282
▁ikisi	-7283
▁Devrimi	-7284
▁süresi	-7285
▁düzenleme	-7286
▁Tri	-7287
▁evlilik	-7288
tek	-7289
▁salon	-7290
▁YouTube	-7291
▁başarısız	-7292
istleri	-7293
▁Filistin	-7294
ange	-7295
▁hikâye	-7296
▁Kahramanmaraş	-7297
▁reak	-7298
Farsça	-7299
▁enerj	-7300
▁dağılımı	-7301
▁Hastanesi	-7302
▁şarkının	-7303
▁figür	-7304
inae	-7305
▁1929	-7306
▁Polis	-7307
öğretim	-7308
▁pl	-7309
▁Hür	-7310
▁Best	-7311
▁karşın	-7312
▁hastalığı	-7313
Hersek	-7314
▁hidro	-7315
▁Uruguay	-7316
41	-7317
general	-7318
âm	-7319
▁kullanılarak	-7320
▁1912	-7321
▁Ağrı	-7322
▁1940'	-7323
nekler	-7324
siy	-7325
achus	-7326
▁zarar	-7327
sü	-7328
▁Bolu	-7329
▁sanatçılar	-7330
▁Yapım	-7331
▁Hein	-7332
▁ülkesi	-7333
▁Model	-7334
▁galaksiler	-7335
▁İşçi	-7336
▁bahsed	-7337
▁onları	-7338
▁İnş	-7339
▁maça	-7340
▁yörün	-7341
▁fiziksel	-7342
aven	-7343
besi	-7344
▁1994'	-7345
▁Galax	-7346
▁Hatay	-7347
ısındaki	-7348
▁tabanlı	-7349
▁Selçuklu	-7350
dırım	-7351
▁Fotoğraf	-7352
▁iddi	-7353
▁layık	-7354
▁etmesi	-7355
▁1920'	-7356
▁London	-7357
3),	-7358
▁je	-7359
oka	-7360
▁5:	-7361
adişah	-7362
▁ob	-7363
▁sonuna	-7364
▁Saat	-7365
▁Teknoloji	-7366
72	-7367
▁Askeri	-7368
▁Münih	-7369
▁Öğret	-7370
▁Gerçek	-7371
▁liste	-7372
▁çocukları	-7373
rond	-7374
▁kaynakları	-7375
eta	-7376
ukur	-7377
▁Brit	-7378
ologlar	-7379
ektup	-7380
▁Aşağıdaki	-7381
embe	-7382
▁deprem	-7383
▁ayrılır	-7384
▁tartışma	-7385
▁Gold	-7386
une	-7387
▁1927	-7388
liğinin	-7389
sat	-7390
layıp	-7391
▁koşul	-7392
▁Klasik	-7393
▁duyurdu	-7394
şak	-7395
▁Hap	-7396
▁sınıfı	-7397
tın	-7398
▁ediyor	-7399
▁Portekizli	-7400
▁Turg	-7401
▁Ayş	-7402
▁Uğur	-7403
▁Bus	-7404
▁Kans	-7405
▁Galler	-7406
sburg	-7407
▁turda	-7408
box	-7409
elendir	-7410
▁(2022)	-7411
▁Taksonomi	-7412
▁görevlendir	-7413
▁Yine	-7414
uts	-7415
▁Metin	-7416
▁doktora	-7417
▁Büyükelç	-7418
▁gösterdi	-7419
esto	-7420
▁Kırk	-7421
▁South	-7422
ilerden	-7423
ılığında	-7424
▁Listeler	-7425
▁dilinde	-7426
▁{	-7427
▁beğ	-7428
▁Balkan	-7429
▁Primera	-7430
▁leh	-7431
89	-7432
▁Pil	-7433
▁Associ	-7434
▁dergisi	-7435
kov	-7436
▁Rem	-7437
▁Ru	-7438
▁Buda	-7439
eten	-7440
▁Ga	-7441
▁çatışmalar	-7442
▁Oy	-7443
▁Sanatçı	-7444
cağı	-7445
rısı	-7446
▁400	-7447
▁karıştır	-7448
▁Prot	-7449
isp	-7450
▁serisinin	-7451
▁çıkardığı	-7452
▁Latince	-7453
▁Şam	-7454
▁Tes	-7455
ther	-7456
▁Dip	-7457
ayıf	-7458
DE	-7459
FL	-7460
azz	-7461
▁SSCB	-7462
▁doğa	-7463
▁başlıca	-7464
lemeler	-7465
▁davet	-7466
▁gören	-7467
▁maddeler	-7468
▁Ov	-7469
ior	-7470
bert	-7471
▁doğr	-7472
ingham	-7473
▁grafik	-7474
▁not	-7475
▁1995'	-7476
elly	-7477
▁çerçev	-7478
usa	-7479
▁300	-7480
ст	-7481
▁Vit	-7482
▁çekilen	-7483
iddi	-7484
▁dosya	-7485
05	-7486
▁şart	-7487
▁açılan	-7488
Arap	-7489
▁tarafında	-7490
▁üstlendiği	-7491
▁müş	-7492
▁ört	-7493
▁Kırmızı	-7494
▁asıl	-7495
▁merkezinde	-7496
gir	-7497
▁But	-7498
▁Devrim	-7499
adet	-7500
güne	-7501
▁taksonlar	-7502
ben	-7503
▁Sinem	-7504
ığ	-7505
çilik	-7506
▁varlığı	-7507
▁Spr	-7508
vador	-7509
lamaya	-7510
verengi	-7511
▁Galaxy	-7512
ıbbi	-7513
▁gerçekleşti	-7514
▁bakış	-7515
hem	-7516
ense	-7517
▁Game	-7518
▁muhaf	-7519
uar	-7520
als	-7521
▁Fox	-7522
▁tüy	-7523
▁imza	-7524
▁galibiyet	-7525
ily	-7526
agan	-7527
▁aktris	-7528
▁Erdoğan	-7529
etts	-7530
▁tarihindeki	-7531
▁önünde	-7532
ahan	-7533
▁imk	-7534
▁üyeliği	-7535
oku	-7536
▁Inc	-7537
▁İsa	-7538
▁Hir	-7539
▁özellikler	-7540
▁kenar	-7541
▁temiz	-7542
▁mağlup	-7543
liğindeki	-7544
▁ilişkili	-7545
на	-7546
üman	-7547
▁*	-7548
▁Turizm	-7549
▁gücü	-7550
▁Kütüphan	-7551
▁Lübnan	-7552
▁Marmara	-7553
▁1914	-7554
▁görevinden	-7555
▁23.	-7556
▁Lew	-7557
▁biraz	-7558
▁tapın	-7559
isip	-7560
▁Arda	-7561
▁Trabzonspor	-7562
▁bölgesel	-7563
▁vaz	-7564
bor	-7565
▁performansı	-7566
▁Ayr	-7567
▁Stü	-7568
▁kenti	-7569
▁Kud	-7570
▁tır	-7571
▁Philip	-7572
jinal	-7573
▁Long	-7574
▁gerekir	-7575
▁davranış	-7576
▁gösterime	-7577
odi	-7578
▁İli	-7579
▁(1997)	-7580
▁canlandırdığı	-7581
▁çay	-7582
▁1932	-7583
larca	-7584
▁Heart	-7585
▁düşünce	-7586
ré	-7587
his	-7588
▁Dair	-7589
▁sezonun	-7590
▁Şanlıurfa	-7591
-13	-7592
▁kitaplar	-7593
▁Land	-7594
▁keşif	-7595
▁kullanır	-7596
amıştır	-7597
▁bölümler	-7598
raft	-7599
▁oyunculu	-7600
asal	-7601
arn	-7602
▁Beh	-7603
▁anıt	-7604
lüğünde	-7605
▁desteği	-7606
▁Biyografi	-7607
▁taslakları	-7608
imin	-7609
▁saç	-7610
▁Parça	-7611
▁Kırgız	-7612
▁sezonda	-7613
▁sezonları	-7614
▁arkeolojik	-7615
eria	-7616
▁1922	-7617
▁Lef	-7618
▁1989'	-7619
▁vilayet	-7620
▁servis	-7621
achusetts	-7622
▁Filmografisi	-7623
LA	-7624
▁istedi	-7625
▁Ateş	-7626
▁röportaj	-7627
▁mir	-7628
emesi	-7629
▁tarihsel	-7630
▁gider	-7631
▁ihtiyaç	-7632
54	-7633
rel	-7634
gili	-7635
▁yüzünden	-7636
emedi	-7637
▁Hüküm	-7638
▁Şehirdeki	-7639
▁organiz	-7640
▁Lak	-7641
▁çıkart	-7642
well	-7643
▁Oxford	-7644
▁bugünkü	-7645
bet	-7646
▁Sig	-7647
oya	-7648
▁kısmında	-7649
.19	-7650
▁tasvir	-7651
);	-7652
▁‘	-7653
olo	-7654
linois	-7655
▁şehirde	-7656
RA	-7657
azak	-7658
▁Nes	-7659
▁olduğuna	-7660
▁ildir	-7661
işe	-7662
▁çevresinde	-7663
▁aslında	-7664
▁Nak	-7665
▁Venezuel	-7666
lal	-7667
▁katkıda	-7668
▁şeker	-7669
▁Konservat	-7670
rondiss	-7671
▁senesinde	-7672
ihb	-7673
edek	-7674
ourn	-7675
▁Pot	-7676
▁Anna	-7677
▁Hitler	-7678
▁Island	-7679
abileceği	-7680
▁150	-7681
▁Baz	-7682
▁günde	-7683
▁alternatif	-7684
▁düzenlendi	-7685
SP	-7686
▁1918	-7687
▁Gece	-7688
▁sergilen	-7689
▁bölgeye	-7690
▁kişileri	-7691
▁Aile	-7692
▁Kutsal	-7693
▁arada	-7694
▁Türkler	-7695
▁merkezleri	-7696
▁çalışmıştır	-7697
kaya	-7698
▁1945'	-7699
ihbarat	-7700
▁listesine	-7701
▁yapımcıları	-7702
sta	-7703
▁çekti	-7704
▁(1996)	-7705
▁üstlenmiştir	-7706
etiyle	-7707
▁giderek	-7708
▁şampiyonluk	-7709
ovan	-7710
▁Keş	-7711
▁Por	-7712
19)	-7713
▁Arm	-7714
akları	-7715
▁etkileş	-7716
▁Şarkının	-7717
▁ülkelerde	-7718
▁Massachusetts	-7719
urta	-7720
▁genelde	-7721
▁Üret	-7722
▁Dream	-7723
▁dalga	-7724
andar	-7725
orlar	-7726
▁64	-7727
cast	-7728
▁teklif	-7729
▁Pasifik	-7730
▁ortasında	-7731
▁edilebilir	-7732
▁Had	-7733
Türkiye	-7734
▁muhtemelen	-7735
anga	-7736
▁Bell	-7737
▁Cins	-7738
▁Mardin	-7739
▁terimleri	-7740
▁Kaya	-7741
▁Psik	-7742
▁vide	-7743
▁birimler	-7744
▁fi	-7745
ütte	-7746
tral	-7747
▁House	-7748
iber	-7749
▁halklardan	-7750
▁Linux	-7751
88	-7752
▁gerekli	-7753
iser	-7754
▁Kılıç	-7755
▁Hareket	-7756
▁atom	-7757
landığı	-7758
ûm	-7759
▁içermektedir	-7760
▁Wik	-7761
▁katı	-7762
tive	-7763
▁Olymp	-7764
▁hasta	-7765
▁Lük	-7766
▁Mans	-7767
▁Baraj	-7768
▁1923	-7769
▁kalk	-7770
irli	-7771
lenebilir	-7772
▁Jor	-7773
▁özgü	-7774
obi	-7775
▁kuruluşu	-7776
▁Işık	-7777
▁Miras	-7778
▁yaşanan	-7779
▁akademik	-7780
endik	-7781
▁WWE	-7782
▁dom	-7783
71	-7784
▁boks	-7785
▁Doğum	-7786
▁satışa	-7787
▁verilm	-7788
▁dük	-7789
▁Temel	-7790
ump	-7791
ough	-7792
ule	-7793
▁High	-7794
▁Mühendisliği	-7795
▁coğrafi	-7796
▁Eğ	-7797
▁boğ	-7798
larıdır	-7799
▁nedeni	-7800
lemektedir	-7801
▁oluşuyordu	-7802
oi	-7803
tuğ	-7804
akat	-7805
▁Yabancı	-7806
▁komedy	-7807
▁bölgeleri	-7808
▁Ath	-7809
▁yapılmaktadır	-7810
lenerek	-7811
▁şehrinin	-7812
▁Illinois	-7813
▁Buck	-7814
▁Laur	-7815
▁Cambridge	-7816
hou	-7817
avir	-7818
htm	-7819
▁(5	-7820
opter	-7821
ray	-7822
▁Kamp	-7823
▁bileşik	-7824
▁zamanında	-7825
▁İlet	-7826
ode	-7827
▁istasyonları	-7828
20)	-7829
olina	-7830
▁Körfezi	-7831
▁düşünülmektedir	-7832
cadel	-7833
▁Kurgu	-7834
TP	-7835
▁bl	-7836
eman	-7837
▁sayfalar	-7838
▁Norveçli	-7839
▁1931	-7840
▁buldu	-7841
lığın	-7842
▁analiz	-7843
▁strate	-7844
üllü	-7845
▁terfi	-7846
▁yazmıştır	-7847
abir	-7848
▁şunlardır	-7849
lag	-7850
▁moda	-7851
ecektir	-7852
▁kaydetti	-7853
işki	-7854
▁gereken	-7855
▁hazırlanan	-7856
▁BM	-7857
▁Kh	-7858
▁Anth	-7859
▁Senar	-7860
▁Caddesi	-7861
▁kıl	-7862
▁uğraş	-7863
ère	-7864
▁pot	-7865
▁(2013)	-7866
itter	-7867
▁Virg	-7868
▁kısalt	-7869
▁uzanan	-7870
ücu	-7871
elenen	-7872
arl	-7873
▁amatör	-7874
▁ilçesinin	-7875
CDD	-7876
▁con	-7877
▁Köyü	-7878
elikle	-7879
▁seçimi	-7880
▁büyükel	-7881
▁22.	-7882
▁Nac	-7883
▁Ağır	-7884
▁hattı	-7885
▁Kocaeli	-7886
▁Bilgisayar	-7887
▁dolayısıyla	-7888
uku	-7889
▁DVD	-7890
▁Wood	-7891
amış	-7892
▁Rot	-7893
▁şeh	-7894
▁getirdi	-7895
reb	-7896
leyerek	-7897
▁Las	-7898
▁www	-7899
eliğine	-7900
memektedir	-7901
▁East	-7902
▁evinde	-7903
▁Endonezya	-7904
▁fen	-7905
▁kısaca	-7906
üttefik	-7907
▁Sn	-7908
▁Festival	-7909
▁TCDD	-7910
▁mikro	-7911
▁çeviri	-7912
atları	-7913
önü	-7914
▁tez	-7915
▁Şim	-7916
▁Zong	-7917
▁Kanun	-7918
▁çiçek	-7919
▁anay	-7920
eyt	-7921
onto	-7922
▁mekan	-7923
▁Karaca	-7924
▁Dük	-7925
edisi	-7926
▁hatta	-7927
▁dünyada	-7928
▁değiştirildi	-7929
▁Matematik	-7930
9"	-7931
▁Sky	-7932
▁Yür	-7933
▁Times	-7934
▁Amasya	-7935
▁Bayram	-7936
▁yel	-7937
▁gelişim	-7938
▁Buff	-7939
▁porn	-7940
▁Light	-7941
▁mensup	-7942
▁katılım	-7943
gıt	-7944
▁Pen	-7945
ар	-7946
▁Eğit	-7947
▁Manastır	-7948
▁uzunluğu	-7949
▁anti	-7950
▁durumunda	-7951
▁Columbia	-7952
▁yasal	-7953
▁İlişk	-7954
set	-7955
▁Dest	-7956
▁Sony	-7957
▁ekib	-7958
▁albümünde	-7959
67	-7960
▁altıncı	-7961
4),	-7962
▁caz	-7963
oruml	-7964
▁hentbol	-7965
▁gösterilmiştir	-7966
▁Rio	-7967
▁kazandır	-7968
▁120	-7969
dadır	-7970
▁feshed	-7971
▁eşlik	-7972
▁önceden	-7973
▁edildiği	-7974
hak	-7975
▁Johnson	-7976
▁tanınmış	-7977
ces	-7978
▁1916	-7979
▁yukarı	-7980
fel	-7981
ume	-7982
mark	-7983
▁Örgütü	-7984
ikast	-7985
▁Takımı	-7986
abat	-7987
▁Bra	-7988
anlarının	-7989
uldak	-7990
▁gemi	-7991
▁AK	-7992
▁Gez	-7993
▁klav	-7994
▁silin	-7995
▁fabrik	-7996
▁Mekte	-7997
uke	-7998
▁füz	-7999
▁dost	-8000
▁hastalı	-8001
şi	-8002
▁Pla	-8003
▁bank	-8004
▁Elec	-8005
▁kuvvetleri	-8006
mik	-8007
ography	-8008
▁terimi	-8009
acık	-8010
aze	-8011
▁Boş	-8012
stanbul	-8013
▁Bayrak	-8014
▁İlçesi	-8015
tika	-8016
▁Gem	-8017
▁vücut	-8018
▁Koruma	-8019
otos	-8020
▁subay	-8021
▁yanlış	-8022
▁Prem	-8023
▁yenilen	-8024
▁İrlandalı	-8025
▁Özellikleri	-8026
ıma	-8027
▁elinde	-8028
▁1987'	-8029
▁öğrenciler	-8030
view	-8031
▁Pierre	-8032
▁operasyon	-8033
▁gıda	-8034
▁açıklandı	-8035
▁5,	-8036
▁Şeyh	-8037
▁akr	-8038
▁Araç	-8039
▁Otom	-8040
▁Kaleci	-8041
ente	-8042
▁Bea	-8043
▁hit	-8044
▁kullandığı	-8045
▁lak	-8046
▁Denizli	-8047
içi	-8048
▁Cre	-8049
uka	-8050
ator	-8051
▁boyu	-8052
▁Vokal	-8053
▁vefat	-8054
▁zayıf	-8055
▁milliyet	-8056
▁Zonguldak	-8057
▁August	-8058
61	-8059
▁başbakanları	-8060
▁Yam	-8061
▁ray	-8062
▁Cihaz	-8063
▁cumhuriyet	-8064
▁Kimya	-8065
▁düşür	-8066
▁toplantı	-8067
▁Mirası	-8068
▁Kendisi	-8069
▁gerekti	-8070
▁Çak	-8071
▁Conn	-8072
üri	-8073
▁görevinde	-8074
gılan	-8075
▁vermek	-8076
yaman	-8077
▁Seçim	-8078
▁anlay	-8079
▁coğrafyası	-8080
http	-8081
▁6360	-8082
▁yenerek	-8083
İs	-8084
▁Kub	-8085
▁nadir	-8086
▁karbon	-8087
▁fay	-8088
▁Afyonkarahisar	-8089
01	-8090
▁Dic	-8091
▁öde	-8092
▁okum	-8093
▁devrim	-8094
▁0,	-8095
▁sinir	-8096
▁Geçmiş	-8097
▁Şahin	-8098
▁çevrimi	-8099
ember	-8100
▁Eliz	-8101
▁Maur	-8102
▁Lang	-8103
▁France	-8104
▁lise	-8105
▁iller	-8106
▁McC	-8107
▁|19	-8108
▁uydu	-8109
▁öykü	-8110
▁Felsef	-8111
ebilen	-8112
▁zamanlarda	-8113
▁aray	-8114
▁hakem	-8115
▁kaleme	-8116
▁refer	-8117
▁bölgesinden	-8118
ides	-8119
amily	-8120
▁zırh	-8121
ebr	-8122
eller	-8123
▁kalıntı	-8124
▁Fl	-8125
ister	-8126
▁Ut	-8127
▁Dak	-8128
▁zafer	-8129
▁Kartal	-8130
▁karısı	-8131
▁Hükûmeti	-8132
▁yans	-8133
PS	-8134
▁ch	-8135
▁ez	-8136
▁alma	-8137
▁turizm	-8138
▁(2014)	-8139
▁mitolojisi	-8140
▁şehristanı	-8141
elin	-8142
enko	-8143
▁Mob	-8144
areti	-8145
▁tanındı	-8146
▁yürüttü	-8147
ilerinden	-8148
▁end	-8149
▁tarihine	-8150
▁Nan	-8151
▁kale	-8152
▁takımda	-8153
▁ال	-8154
▁1921	-8155
▁Fal	-8156
Arapça	-8157
celona	-8158
urn	-8159
▁Sé	-8160
▁basketbolcu	-8161
lüğe	-8162
▁Şer	-8163
▁bilgileri	-8164
▁kolon	-8165
▁HD	-8166
▁ceza	-8167
▁bunların	-8168
TÜ	-8169
pi	-8170
▁MP	-8171
mini	-8172
▁Aut	-8173
▁Cey	-8174
▁rah	-8175
▁Little	-8176
–201	-8177
▁1917	-8178
▁Stal	-8179
▁kuruluşları	-8180
ston	-8181
▁Güç	-8182
▁Sap	-8183
▁piş	-8184
▁Başar	-8185
▁kemik	-8186
▁System	-8187
▁manastır	-8188
▁bakımından	-8189
▁mutfağındaki	-8190
53	-8191
ER	-8192
▁Sef	-8193
▁anlaşma	-8194
▁kapalı	-8195
▁rolünü	-8196
▁Kazak	-8197
▁yükseklik	-8198
essiz	-8199
▁Nick	-8200
▁konuk	-8201
▁koruy	-8202
▁33	-8203
ende	-8204
▁kültürü	-8205
▁açılmıştır	-8206
aft	-8207
▁kıt	-8208
▁teknoloji	-8209
▁oyunlar	-8210
▁Len	-8211
ydi	-8212
şap	-8213
▁Öğren	-8214
▁uçağı	-8215
▁Steve	-8216
▁1'	-8217
▁şub	-8218
▁yang	-8219
▁mücadel	-8220
62	-8221
edral	-8222
▁Kork	-8223
▁Lewis	-8224
▁hızla	-8225
▁komutanı	-8226
▁Broad	-8227
▁White	-8228
ilmesine	-8229
▁Kızılder	-8230
▁Ukraynalı	-8231
▁tamamlamıştır	-8232
phia	-8233
▁Che	-8234
▁Ruh	-8235
▁Blue	-8236
▁geçerek	-8237
▁Tif	-8238
▁Ten	-8239
mekteydi	-8240
utt	-8241
sy	-8242
▁turnuva	-8243
▁askerler	-8244
▁af	-8245
▁isten	-8246
▁Hikâ	-8247
▁talep	-8248
kara	-8249
▁valisi	-8250
▁Sonraki	-8251
▁mevkiinde	-8252
▁ciddi	-8253
▁yaşamını	-8254
▁XX	-8255
▁drama	-8256
▁köpek	-8257
▁söyler	-8258
Kar	-8259
bolu	-8260
rand	-8261
türü	-8262
▁Joe	-8263
▁Kök	-8264
arth	-8265
▁ekonomi	-8266
6),	-8267
kestr	-8268
▁hatt	-8269
▁fiyat	-8270
▁harit	-8271
▁Taylor	-8272
▁ödülleri	-8273
▁kazanarak	-8274
▁Who	-8275
▁dey	-8276
edinci	-8277
▁mahkem	-8278
▁gr	-8279
▁Mun	-8280
arlık	-8281
yoloji	-8282
▁Villa	-8283
▁eksik	-8284
▁bürokrat	-8285
▁Ağa	-8286
▁cen	-8287
ülmüş	-8288
▁araştırmacı	-8289
ovo	-8290
▁Rub	-8291
▁yılların	-8292
51	-8293
ispor	-8294
▁Ener	-8295
▁Great	-8296
ikol	-8297
▁nef	-8298
▁düzenlenmiştir	-8299
▁Holding	-8300
lanabilir	-8301
▁Bülent	-8302
▁olmadan	-8303
mışlardır	-8304
eysel	-8305
▁Katar	-8306
▁geliştirme	-8307
▁(1995)	-8308
▁başbakan	-8309
▁çalışmalarına	-8310
odor	-8311
▁Oscar	-8312
▁statüs	-8313
▁Cephesi	-8314
▁kazandığı	-8315
▁Turk	-8316
▁Anayasa	-8317
▁çubuklu	-8318
▁С	-8319
▁Tib	-8320
▁ces	-8321
▁Andrew	-8322
▁olumlu	-8323
▁Hollywood	-8324
▁Danimarkalı	-8325
73	-8326
mad	-8327
▁Halil	-8328
ento	-8329
▁Mix	-8330
▁kapı	-8331
emez	-8332
aver	-8333
▁Albümün	-8334
▁oluşturduğu	-8335
yanı	-8336
ceksi	-8337
lığının	-8338
semburg	-8339
▁Christian	-8340
▁Tayland	-8341
▁Elektrik	-8342
mud	-8343
▁38	-8344
▁sıcaklık	-8345
▁Hit	-8346
rî	-8347
▁São	-8348
▁koyu	-8349
▁teker	-8350
▁küresel	-8351
▁araçları	-8352
▁Jeff	-8353
mişlerdir	-8354
ıldığında	-8355
mamaktadır	-8356
▁Us	-8357
▁Sid	-8358
liliği	-8359
▁Kitab	-8360
jik	-8361
▁fikir	-8362
▁yoluna	-8363
att	-8364
▁VI	-8365
helm	-8366
▁Çel	-8367
▁Girl	-8368
▁Görün	-8369
▁Robin	-8370
▁Taşk	-8371
▁mimari	-8372
▁Bilimleri	-8373
olları	-8374
▁liman	-8375
▁esnasında	-8376
▁yapımcılığını	-8377
iral	-8378
ülasyon	-8379
▁İtalyanca	-8380
▁evren	-8381
▁mobil	-8382
▁Slovenya	-8383
▁kapsayan	-8384
0.	-8385
lig	-8386
▁Kop	-8387
▁Ulu	-8388
▁köyünün	-8389
▁Emin	-8390
▁1988'	-8391
▁Ortak	-8392
▁seçilmiş	-8393
Hol	-8394
amba	-8395
▁Sinop	-8396
▁petrol	-8397
ıydı	-8398
▁Dark	-8399
▁Yıldırım	-8400
▁akars	-8401
ste	-8402
▁Vladimir	-8403
onik	-8404
▁Gun	-8405
▁Normal	-8406
▁Kafkasya	-8407
▁Stüdyo	-8408
▁yükselt	-8409
▁Tren	-8410
▁Olaylar	-8411
64	-8412
mektir	-8413
▁İzlanda	-8414
▁Instit	-8415
▁Single	-8416
▁görünt	-8417
▁ortadan	-8418
▁Yaklaşık	-8419
▁aralarında	-8420
08	-8421
ves	-8422
▁Yarımada	-8423
ümr	-8424
▁Pav	-8425
▁Disc	-8426
▁Piyade	-8427
▁ka	-8428
▁CHP	-8429
▁yürüy	-8430
▁başlam	-8431
▁Belgrad	-8432
▁İsviçreli	-8433
▁26.	-8434
▁1908	-8435
▁Anti	-8436
▁Virginia	-8437
ان	-8438
amay	-8439
▁Porto	-8440
▁paket	-8441
kestra	-8442
▁azalt	-8443
▁askerleri	-8444
▁Osmanlılar	-8445
09	-8446
zy	-8447
alat	-8448
anya	-8449
▁End	-8450
lemeye	-8451
▁Kamer	-8452
▁ücretsiz	-8453
▁tarihinden	-8454
▁Association	-8455
▁mür	-8456
▁memel	-8457
▁kemer	-8458
▁çıktığı	-8459
▁Adıyaman	-8460
▁Türkçeye	-8461
▁gönderildi	-8462
celi	-8463
üzg	-8464
▁vad	-8465
▁José	-8466
▁nesn	-8467
▁yarım	-8468
▁Barcelona	-8469
▁Mike	-8470
▁Jr	-8471
▁İh	-8472
▁tarzı	-8473
▁Ekonomik	-8474
▁Friedrich	-8475
▁yayımlanmıştır	-8476
▁Open	-8477
▁gezegen	-8478
siklop	-8479
▁(2015)	-8480
▁Arthur	-8481
▁alana	-8482
▁birinin	-8483
ivan	-8484
▁Hum	-8485
▁port	-8486
dükten	-8487
▁ayrılarak	-8488
▁Lisesinde	-8489
iyer	-8490
▁Stock	-8491
oa	-8492
oslov	-8493
▁kategorisinde	-8494
▁seslendirilen	-8495
52	-8496
▁tör	-8497
▁Yaşar	-8498
▁olayları	-8499
▁İspanyolca	-8500
▁Emp	-8501
▁korumak	-8502
engiz	-8503
▁oyuncudur	-8504
▁Sı	-8505
▁Sha	-8506
▁Aday	-8507
▁Günü	-8508
oromen	-8509
▁Yavuz	-8510
▁müzisyenleri	-8511
luğa	-8512
▁Michigan	-8513
▁halde	-8514
▁Çankırı	-8515
▁Sıralama	-8516
²'	-8517
▁Slav	-8518
7),	-8519
eland	-8520
▁Serg	-8521
▁müda	-8522
▁yirmi	-8523
ego	-8524
eum	-8525
oid	-8526
▁Chi	-8527
haz	-8528
▁Kolombiya	-8529
▁değişiklik	-8530
aker	-8531
▁kanalında	-8532
ox	-8533
▁sand	-8534
▁Nit	-8535
▁Yapı	-8536
▁kütüphan	-8537
colspan	-8538
▁sıralam	-8539
▁ödüller	-8540
▁Zag	-8541
▁yaşlı	-8542
▁Maliye	-8543
▁ilişki	-8544
▁gelecek	-8545
oban	-8546
▁nesil	-8547
▁tatlı	-8548
▁gerekç	-8549
adelphia	-8550
▁yüksekliği	-8551
alel	-8552
urus	-8553
zu	-8554
bot	-8555
▁Fort	-8556
madığı	-8557
▁Last	-8558
▁başı	-8559
▁Hristiy	-8560
▁bayrağı	-8561
cha	-8562
ifer	-8563
▁Ern	-8564
▁Emre	-8565
▁soğuk	-8566
▁NATO	-8567
▁kolu	-8568
▁Lüksemburg	-8569
▁yiye	-8570
▁Helen	-8571
▁öncesinde	-8572
▁Rumen	-8573
▁taban	-8574
gy	-8575
▁Muş	-8576
▁sel	-8577
▁tay	-8578
amburg	-8579
▁Müf	-8580
▁Story	-8581
▁kuzeybatısında	-8582
▁Serv	-8583
▁bahş	-8584
▁Eğitimi	-8585
▁adlandırılmış	-8586
Don	-8587
▁mesafe	-8588
▁reddet	-8589
refektörlük	-8590
hin	-8591
apur	-8592
▁iyil	-8593
▁yapıldığı	-8594
holm	-8595
ışın	-8596
▁soyad	-8597
▁Alaska	-8598
▁Harvard	-8599
latı	-8600
ınav	-8601
▁Çeşitli	-8602
oba	-8603
▁Yör	-8604
tikleri	-8605
▁yandan	-8606
▁etrafında	-8607
▁SA	-8608
▁İstasyonu	-8609
dün	-8610
orta	-8611
madır	-8612
▁hane	-8613
▁2007:	-8614
▁Yemen	-8615
▁Karabağ	-8616
▁derecesi	-8617
tarı	-8618
yurt	-8619
▁%0,1	-8620
▁Ohio	-8621
▁meydan	-8622
▁gerektir	-8623
▁çevrimiçi	-8624
▁yazılı	-8625
▁İletişim	-8626
▁OS	-8627
▁2006:	-8628
▁çekilmiştir	-8629
▁2008:	-8630
emektedir	-8631
oza	-8632
▁dizide	-8633
▁cer	-8634
ebook	-8635
▁Hakkında	-8636
▁Düzen	-8637
▁Sonra	-8638
▁Kaç	-8639
▁yapma	-8640
gio	-8641
▁Sekreteri	-8642
yak	-8643
▁yarışmasında	-8644
öpr	-8645
IV	-8646
▁Eğer	-8647
▁2005:	-8648
▁opera	-8649
▁tarihinin	-8650
▁başlangıçta	-8651
▁proje	-8652
▁değeri	-8653
▁oluşum	-8654
▁Savaşları	-8655
▁arrondiss	-8656
▁Budap	-8657
▁puanla	-8658
▁merkezidir	-8659
▁giymiştir	-8660
▁İm	-8661
▁cev	-8662
▁iklim	-8663
evin	-8664
▁Dead	-8665
▁kırsal	-8666
▁Network	-8667
▁28.	-8668
▁belediyedir	-8669
▁başkanlığını	-8670
ор	-8671
okol	-8672
ocası	-8673
▁Brun	-8674
▁ırk	-8675
eddin	-8676
▁Çağı	-8677
lanarak	-8678
▁Batman	-8679
▁Corpor	-8680
▁hayatta	-8681
▁sözleri	-8682
63	-8683
▁Ailesi	-8684
▁sahil	-8685
▁Victoria	-8686
▁açıdan	-8687
▁Harry	-8688
▁Bitlis	-8689
▁adının	-8690
▁edecek	-8691
▁cinayet	-8692
anj	-8693
▁Yel	-8694
▁Harris	-8695
▁yetkil	-8696
El	-8697
▁Guy	-8698
▁esin	-8699
▁karmaşık	-8700
IS	-8701
ár	-8702
és	-8703
yetik	-8704
▁Dergisi	-8705
ydu	-8706
▁(192	-8707
▁birer	-8708
masıdır	-8709
▁pasaport	-8710
="3"	-8711
▁kaya	-8712
▁demokr	-8713
▁Vers	-8714
-21	-8715
ugo	-8716
esiz	-8717
▁rej	-8718
▁Grubun	-8719
▁dizisinin	-8720
furt	-8721
▁Vel	-8722
▁halen	-8723
▁çözün	-8724
▁Vadisi	-8725
ılmasına	-8726
▁eyaletine	-8727
▁kütle	-8728
▁Elizabeth	-8729
ée	-8730
▁Açıklama	-8731
▁Almanyası	-8732
▁(1994)	-8733
▁Letonya	-8734
▁çizg	-8735
▁Vikip	-8736
▁arttır	-8737
▁Yönetimi	-8738
▁48	-8739
itir	-8740
▁Atlas	-8741
▁akış	-8742
▁güneybatısında	-8743
▁iptal	-8744
▁sanayi	-8745
▁gruba	-8746
amber	-8747
ents	-8748
▁(15	-8749
▁Whit	-8750
▁özgün	-8751
▁tehdit	-8752
yen	-8753
onne	-8754
▁Wes	-8755
▁hop	-8756
cının	-8757
▁Sayf	-8758
▁ederken	-8759
▁canlandırdı	-8760
98	-8761
gıl	-8762
▁Doc	-8763
▁Soğ	-8764
tıraş	-8765
▁Mars	-8766
▁mesaj	-8767
nis	-8768
▁ge	-8769
▁Tech	-8770
▁etki	-8771
endo	-8772
▁Ünlü	-8773
▁Toronto	-8774
▁bölümünü	-8775
▁ta	-8776
▁alıyor	-8777
▁cumhurbaşkanı	-8778
DF	-8779
▁Danış	-8780
▁aylık	-8781
tia	-8782
ions	-8783
▁Kongresi	-8784
▁bırakıldı	-8785
▁SB	-8786
▁Hip	-8787
▁Juan	-8788
▁teşvik	-8789
La	-8790
ezd	-8791
▁By	-8792
▁çözüm	-8793
||||||||	-8794
pin	-8795
ceği	-8796
▁İmparatorluk	-8797
andır	-8798
▁Center	-8799
▁görevlisi	-8800
03	-8801
▁Fon	-8802
▁sent	-8803
ahi	-8804
▁anlamı	-8805
▁Georgia	-8806
▁otomatik	-8807
mus	-8808
▁Antonio	-8809
▁25.	-8810
▁uzat	-8811
prefektörlük	-8812
▁cem	-8813
▁kalır	-8814
▁Turgut	-8815
akta	-8816
resi	-8817
ladıktan	-8818
▁Öy	-8819
▁serg	-8820
▁(2016)	-8821
▁defter	-8822
anth	-8823
▁gay	-8824
ansiyel	-8825
▁Uşak	-8826
▁Fah	-8827
▁Radio	-8828
▁antlaş	-8829
dorf	-8830
▁tec	-8831
artman	-8832
▁şarkıyı	-8833
elenmiştir	-8834
ES	-8835
▁Sta	-8836
▁keşfedilen	-8837
▁karşılığında	-8838
▁6,	-8839
▁Malta	-8840
▁rak	-8841
▁Mold	-8842
▁kriz	-8843
▁scope	-8844
▁olmakla	-8845
▁bulundur	-8846
▁Cev	-8847
▁Çekoslov	-8848
▁farklılık	-8849
▁yakınında	-8850
bel	-8851
üzik	-8852
▁182	-8853
▁Peru	-8854
▁Kırık	-8855
▁depol	-8856
▁eyaletinin	-8857
▁Lud	-8858
▁Chap	-8859
▁State	-8860
▁tüken	-8861
jo	-8862
▁Prime	-8863
ental	-8864
▁Muhaf	-8865
abilmek	-8866
▁Rah	-8867
ağına	-8868
▁yönel	-8869
▁Kütüphanesi	-8870
ema	-8871
▁yarışmada	-8872
ömür	-8873
▁büyüdü	-8874
▁oldukları	-8875
▁IMD	-8876
PA	-8877
▁Š	-8878
▁1886	-8879
ograph	-8880
▁spons	-8881
▁Kuvvet	-8882
▁gördüğü	-8883
▁Karaman	-8884
▁nüfusun	-8885
▁sözcüğü	-8886
▁şirketin	-8887
izmi	-8888
▁merc	-8889
▁ötürü	-8890
amayan	-8891
▁Milano	-8892
▁Öğretmen	-8893
rut	-8894
▁okun	-8895
▁1986'	-8896
▁disip	-8897
▁Cl	-8898
▁Tunç	-8899
ilya	-8900
▁Hakan	-8901
▁Ly	-8902
▁sınırlı	-8903
iyev	-8904
olas	-8905
ourt	-8906
▁Fik	-8907
▁Tuz	-8908
luğuna	-8909
▁kurduğu	-8910
ats	-8911
▁bot	-8912
▁1913	-8913
▁Team	-8914
▁reform	-8915
▁Cemiyeti	-8916
▁sağlam	-8917
ıköy	-8918
▁Leh	-8919
▁Metal	-8920
▁sayımında	-8921
rir	-8922
▁Ley	-8923
ipedia	-8924
▁Yüksel	-8925
▁sürede	-8926
▁çıkmış	-8927
lamaları	-8928
landırma	-8929
con	-8930
eto	-8931
uch	-8932
inen	-8933
▁Hom	-8934
▁kaydedilmiştir	-8935
5),	-8936
▁İstasyon	-8937
ен	-8938
▁sıvı	-8939
▁dolaş	-8940
▁klibi	-8941
▁sıklıkla	-8942
onca	-8943
aster	-8944
▁çalışmalarını	-8945
▁davul	-8946
ido	-8947
▁Philadelphia	-8948
üel	-8949
▁Gümüşhane	-8950
▁Slovakya	-8951
▁ödüllendir	-8952
▁Mam	-8953
▁esir	-8954
▁inf	-8955
▁türler	-8956
lix	-8957
ras	-8958
▁Bow	-8959
iğ	-8960
övalye	-8961
▁ideal	-8962
▁yayla	-8963
▁sınırı	-8964
▁kahverengi	-8965
▁24.	-8966
▁unsur	-8967
▁oğludur	-8968
oke	-8969
ount	-8970
▁Kes	-8971
▁Nih	-8972
▁aydın	-8973
▁Aleksand	-8974
▁Fred	-8975
▁anlamda	-8976
▁mahall	-8977
▁hasar	-8978
▁okulu	-8979
▁intihar	-8980
izz	-8981
ancı	-8982
▁%3	-8983
▁Cy	-8984
ıntılı	-8985
▁Drama	-8986
▁Marie	-8987
▁öğrencisi	-8988
▁kuz	-8989
▁Mari	-8990
▁öğrenc	-8991
▁Om	-8992
ğünü	-8993
▁şarkıcısı	-8994
▁akıllı	-8995
▁yüzölç	-8996
▁dağılımının	-8997
eceği	-8998
▁rakip	-8999
▁tarif	-9000
▁İnşaat	-9001
▁problem	-9002
▁tarihçi	-9003
▁kadrosunda	-9004
▁Onun	-9005
▁kurb	-9006
ılıyor	-9007
▁Produc	-9008
▁onların	-9009
04	-9010
▁Kid	-9011
abalık	-9012
▁tarihî	-9013
▁Stephen	-9014
▁Tev	-9015
▁hariç	-9016
ingen	-9017
▁Krist	-9018
▁önder	-9019
▁tasarımı	-9020
▁görülmüştür	-9021
Man	-9022
real	-9023
ıntılar	-9024
▁halter	-9025
▁soruml	-9026
▁olmadığını	-9027
▁Corporation	-9028
irk	-9029
▁sh	-9030
eşte	-9031
ülmesi	-9032
▁türlü	-9033
▁ağırlıklı	-9034
oe	-9035
▁binası	-9036
▁soyadı	-9037
▁US	-9038
tron	-9039
amamıştır	-9040
▁polisiye	-9041
▁isimleri	-9042
▁А	-9043
▁DJ	-9044
▁27.	-9045
eyg	-9046
çının	-9047
▁köyüne	-9048
▁takıma	-9049
▁İslami	-9050
zen	-9051
şam	-9052
▁181	-9053
denin	-9054
▁tank	-9055
▁(1993)	-9056
▁isteyen	-9057
▁toplumsal	-9058
ükr	-9059
▁diller	-9060
▁Hamburg	-9061
▁rahatsız	-9062
ns	-9063
▁koç	-9064
▁20 	-9065
▁Mis	-9066
▁Way	-9067
▁Bütün	-9068
▁yüzde	-9069
▁Çelik	-9070
▁anılır	-9071
sus	-9072
▁Tra	-9073
▁Profesör	-9074
▁Key	-9075
▁Greg	-9076
erpool	-9077
meyenler	-9078
iano	-9079
▁Ford	-9080
▁bölümde	-9081
▁arasındadır	-9082
▁Ein	-9083
02	-9084
▁UCI	-9085
▁dizinin	-9086
▁çekirdek	-9087
▁Özbekistan	-9088
div	-9089
▁terör	-9090
kop	-9091
▁yumurta	-9092
▁fa	-9093
▁Cav	-9094
adıkları	-9095
▁personel	-9096
hard	-9097
▁Ts	-9098
icus	-9099
umsuz	-9100
06	-9101
▁Sic	-9102
atosu	-9103
▁Önemli	-9104
▁üyesiydi	-9105
▁AP	-9106
▁silahlı	-9107
▁öğrenimini	-9108
skaya	-9109
cyc	-9110
▁köprü	-9111
kun	-9112
▁seçen	-9113
▁tipik	-9114
▁Â	-9115
▁Ash	-9116
▁ismiyle	-9117
▁(6	-9118
▁na	-9119
▁pen	-9120
▁Salih	-9121
▁Michel	-9122
▁Soccer	-9123
▁Wilhelm	-9124
ekom	-9125
▁İşleri	-9126
▁ex	-9127
Star	-9128
▁Ceb	-9129
▁Ferr	-9130
▁evlen	-9131
cası	-9132
▁Eric	-9133
▁marka	-9134
▁Toplum	-9135
▁Opera	-9136
▁kaçır	-9137
▁dersleri	-9138
▁büt	-9139
▁Şek	-9140
gie	-9141
▁39	-9142
▁Mul	-9143
onlar	-9144
▁aylarında	-9145
jan	-9146
▁(3)	-9147
▁Gitar	-9148
▁Turnuvası	-9149
▁güneydoğusunda	-9150
▁(1992)	-9151
▁dönüştü	-9152
▁bulut	-9153
▁sıralaması	-9154
▁Takımlar	-9155
▁başlangı	-9156
▁Ez	-9157
encer	-9158
▁Dost	-9159
▁kelime	-9160
▁senaryo	-9161
▁''	-9162
ıyaka	-9163
▁Down	-9164
▁karşılaştır	-9165
umi	-9166
▁he	-9167
▁aşk	-9168
▁Bingöl	-9169
▁kaybol	-9170
▁familyası	-9171
▁ağırlık	-9172
▁birincileri	-9173
sc	-9174
▁Brian	-9175
rib	-9176
▁başlanmıştır	-9177
Gün	-9178
▁Aus	-9179
84	-9180
▁Kâ	-9181
eski	-9182
▁komşu	-9183
▁projesi	-9184
ogo	-9185
▁Carlos	-9186
ojen	-9187
osen	-9188
▁Media	-9189
▁Walter	-9190
▁çoğunluğu	-9191
ер	-9192
nesota	-9193
pazarı	-9194
urlar	-9195
▁1907	-9196
▁gelmiş	-9197
▁yakınlarındaki	-9198
▁34	-9199
ımız	-9200
▁kazı	-9201
▁hizmetleri	-9202
▁DC	-9203
▁alanlarda	-9204
▁Bag	-9205
▁vücu	-9206
▁görsel	-9207
▁savaşı	-9208
▁koordin	-9209
▁Shak	-9210
▁Ardahan	-9211
▁bilinmeyen	-9212
▁1982'	-9213
▁bilgisi	-9214
▁toplama	-9215
onna	-9216
▁Doug	-9217
▁yola	-9218
▁Nikol	-9219
▁hizmeti	-9220
▁repesaj	-9221
EL	-9222
▁otor	-9223
▁kayıp	-9224
▁Giz	-9225
▁milli	-9226
▁yerlerde	-9227
▁tasarlanmış	-9228
▁55	-9229
öyük	-9230
▁Will	-9231
▁Liverpool	-9232
▁(191	-9233
sterdam	-9234
bit	-9235
▁%6	-9236
itif	-9237
▁Ebu	-9238
▁Tac	-9239
▁tekni	-9240
▁format	-9241
▁konumunda	-9242
▁(9	-9243
▁Tot	-9244
▁arasına	-9245
▁Etim	-9246
ournal	-9247
▁ahşap	-9248
▁Yarışma	-9249
▁albümde	-9250
▁Pin	-9251
▁Veg	-9252
▁Aksu	-9253
▁belirgin	-9254
diki	-9255
alp	-9256
▁America	-9257
▁Şirketi	-9258
▁Karşıyaka	-9259
▁Spe	-9260
▁atıf	-9261
▁Dör	-9262
▁olas	-9263
▁doldur	-9264
▁filminin	-9265
▁uçakları	-9266
▁Ayak	-9267
▁Kudüs	-9268
▁kaleci	-9269
▁motorlu	-9270
ose	-9271
▁Ji	-9272
▁dile	-9273
▁reaksiyon	-9274
▁Marvel	-9275
▁kelimesi	-9276
▁Minnesota	-9277
▁10 	-9278
kiler	-9279
▁Beni	-9280
opolis	-9281
▁düzenlen	-9282
▁maçlar	-9283
imlerini	-9284
▁Gazetec	-9285
▁gençlik	-9286
▁Yu	-9287
▁ayrılmaktadır	-9288
▁Xbox	-9289
▁köşe	-9290
örü	-9291
ragon	-9292
▁News	-9293
▁okuy	-9294
ated	-9295
▁Corn	-9296
lia	-9297
▁faktör	-9298
▁Küba	-9299
▁peyn	-9300
▁Warner	-9301
▁başlayarak	-9302
▁üyelerinin	-9303
▁İnan	-9304
td	-9305
▁kiralık	-9306
;"|	-9307
▁Köl	-9308
▁anı	-9309
▁şekli	-9310
▁2009:	-9311
▁karşıtı	-9312
▁voleybolcuları	-9313
▁(17	-9314
Fransız	-9315
▁Street	-9316
▁sırt	-9317
▁yumuş	-9318
▁Facebook	-9319
ağını	-9320
▁Marc	-9321
▁fosil	-9322
▁gelişmiş	-9323
WW	-9324
▁dergiler	-9325
yat	-9326
veriş	-9327
▁Bağlan	-9328
▁Kitabı	-9329
▁Romalı	-9330
▁bilinmeyenler	-9331
ju	-9332
ouch	-9333
▁Yat	-9334
▁gerekçesiyle	-9335
imal	-9336
val	-9337
▁Çeyrek	-9338
▁hareketi	-9339
▁oyunudur	-9340
uli	-9341
tana	-9342
▁reh	-9343
▁Tenn	-9344
▁Mahmud	-9345
ilmesini	-9346
▁Dairesi	-9347
▁eğlence	-9348
▁formasıyla	-9349
▁ilçeleri	-9350
▁organize	-9351
stan	-9352
öprü	-9353
▁Toy	-9354
atörü	-9355
▁Sadece	-9356
▁geliştirilmiş	-9357
▁üniversiteler	-9358
▁Boks	-9359
lileri	-9360
▁bakan	-9361
▁dövüş	-9362
▁gemisi	-9363
▁kariyerinde	-9364
▁ayı	-9365
▁Osaka	-9366
▁adıdır	-9367
▁ettiler	-9368
▁Milletvekili	-9369
▁Lé	-9370
▁Hard	-9371
▁That	-9372
▁ulaşan	-9373
▁Orijinal	-9374
▁Libya	-9375
▁silindir	-9376
▁görevlerinde	-9377
yaf	-9378
üdar	-9379
▁yam	-9380
okeyi	-9381
▁Tip	-9382
▁Franç	-9383
▁Studios	-9384
▁başarısı	-9385
▁hazırlık	-9386
▁Vah	-9387
▁arab	-9388
▁2011-12	-9389
▁MTV	-9390
archive	-9391
▁meslek	-9392
vo	-9393
▁dü	-9394
▁Emmy	-9395
▁2004:	-9396
▁hatır	-9397
▁Eleştirmenleri	-9398
▁Yet	-9399
mesinde	-9400
▁Gazetesi	-9401
kins	-9402
▁Tiflis	-9403
▁hakkındaki	-9404
▁Çalışmaları	-9405
 (	-9406
▁Shan	-9407
▁Yakın	-9408
efi	-9409
▁Çekya	-9410
▁Kuruluş	-9411
▁arama	-9412
▁parçaları	-9413
▁şarap	-9414
▁Hareketi	-9415
▁komutasındaki	-9416
EC	-9417
▁rit	-9418
▁yapılması	-9419
▁%1	-9420
stad	-9421
▁dışarı	-9422
▁sunucu	-9423
ET	-9424
”,	-9425
ruz	-9426
enos	-9427
▁açılış	-9428
zet	-9429
yona	-9430
▁kuru	-9431
▁toplu	-9432
▁1985'	-9433
▁Kulüpler	-9434
dad	-9435
üsteş	-9436
▁kub	-9437
▁(2017)	-9438
▁Coğrafi	-9439
▁Budapeşte	-9440
▁edebiyatı	-9441
||3	-9442
bach	-9443
▁1910	-9444
▁Kant	-9445
▁manken	-9446
||0||0||0||0	-9447
nat	-9448
▁Meslek	-9449
▁7,	-9450
▁Zam	-9451
▁Band	-9452
▁bunlar	-9453
▁Tasarım	-9454
▁yaşındaki	-9455
▁belediyeler	-9456
▁Pınar	-9457
▁oluşturdu	-9458
AM	-9459
▁Pu	-9460
irya	-9461
▁(10	-9462
▁Ars	-9463
▁Karakter	-9464
▁yükselen	-9465
▁hükümdarı	-9466
▁yayımladı	-9467
aro	-9468
dim	-9469
▁Deb	-9470
▁kör	-9471
▁Papa	-9472
▁Fant	-9473
▁genelinde	-9474
▁×	-9475
asp	-9476
▁65	-9477
▁Mot	-9478
▁anne	-9479
asti	-9480
▁yitir	-9481
İstanbul	-9482
▁açıklam	-9483
▁zamanlı	-9484
▁MK	-9485
▁vek	-9486
anıdır	-9487
malıdır	-9488
▁Finali	-9489
▁Ret	-9490
uston	-9491
▁bireysel	-9492
iyen	-9493
cekler	-9494
▁Class	-9495
▁Kurul	-9496
▁River	-9497
gaz	-9498
▁miktarda	-9499
▁Lady	-9500
▁1972'	-9501
▁bulunmuş	-9502
tuk	-9503
unt	-9504
öly	-9505
leks	-9506
eview	-9507
▁Üyesi	-9508
ılmasını	-9509
▁altyapı	-9510
▁semtinde	-9511
▁belirlemek	-9512
▁ziyar	-9513
▁felsefe	-9514
▁şairler	-9515
▁Premyer	-9516
▁merceksi	-9517
▁Şampiyonluk	-9518
-23	-9519
▁çalışmaktadır	-9520
distan	-9521
▁Senaryo	-9522
91	-9523
Sh	-9524
ña	-9525
och	-9526
ılma	-9527
▁1902	-9528
▁1915	-9529
▁Schw	-9530
▁elip	-9531
▁Lyn	-9532
▁Zir	-9533
▁2010:	-9534
▁soylu	-9535
▁elektron	-9536
▁Gözlem	-9537
▁Princ	-9538
▁biçiminde	-9539
▁fer	-9540
▁Kaymakam	-9541
▁belediyenin	-9542
lock	-9543
▁Zen	-9544
▁sisteminin	-9545
▁dayanmaktadır	-9546
▁kuzeydoğusunda	-9547
▁edilerek	-9548
▁Şirketin	-9549
▁Şampiyonluğu	-9550
upe	-9551
▁1979'	-9552
▁Cop	-9553
▁Jam	-9554
▁Düny	-9555
▁1928'	-9556
▁Hacet	-9557
▁varsay	-9558
▁bestecileri	-9559
▁Selanik	-9560
▁oynandı	-9561
bury	-9562
▁Lov	-9563
▁Nag	-9564
▁Liste	-9565
▁Kafkas	-9566
▁mühendisliği	-9567
▁zamanla	-9568
▁→	-9569
ıcılar	-9570
▁katılmış	-9571
▁websitesi	-9572
▁atanmıştır	-9573
▁Cur	-9574
▁görünüm	-9575
▁İmparatoru	-9576
adis	-9577
▁set	-9578
▁mülk	-9579
▁Mühendislik	-9580
▁bez	-9581
▁çağdaş	-9582
laştırma	-9583
▁grubudur	-9584
▁Road	-9585
ansiyon	-9586
▁üstünde	-9587
▁şehristan	-9588
▁mitolojisinde	-9589
dev	-9590
▁75	-9591
▁1978'	-9592
▁eşya	-9593
▁Allah	-9594
bahar	-9595
▁With	-9596
ifornia	-9597
ayne	-9598
▁sözü	-9599
▁satan	-9600
▁Popüler	-9601
▁büyükelç	-9602
▁belediyesi	-9603
▁sürdürmektedir	-9604
▁evlili	-9605
ilmesiyle	-9606
▁Mimarlık	-9607
uba	-9608
▁Güz	-9609
▁ölü	-9610
▁mektup	-9611
▁yönetiminde	-9612
ás	-9613
gas	-9614
▁Cons	-9615
▁Alfred	-9616
6;"	-9617
▁8,	-9618
ımlı	-9619
▁bağlantılı	-9620
aks	-9621
dent	-9622
▁Medya	-9623
nastik	-9624
▁dizisidir	-9625
▁takımıyla	-9626
kon	-9627
▁müze	-9628
▁bilimi	-9629
8),	-9630
▁Dipn	-9631
▁ekonomisi	-9632
▁ressamları	-9633
▁bölgelerinde	-9634
▁Rac	-9635
▁göçmenler	-9636
abey	-9637
▁Death	-9638
▁Kitapları	-9639
ds	-9640
▁çök	-9641
ımlar	-9642
▁Annesi	-9643
▁Mahmut	-9644
▁Selçuk	-9645
▁kısmen	-9646
▁almakta	-9647
▁sorunları	-9648
▁Başlangıçta	-9649
▁Gh	-9650
▁Pam	-9651
ğünde	-9652
▁2012:	-9653
▁olanlar	-9654
▁ülkeden	-9655
▁atmıştır	-9656
▁Hacettepe	-9657
▁Exp	-9658
▁emek	-9659
▁karışık	-9660
▁çevresi	-9661
▁Futbolculuk	-9662
▁Tuğ	-9663
▁lib	-9664
anta	-9665
eğin	-9666
▁Ped	-9667
▁Reich	-9668
▁Üsküdar	-9669
kent	-9670
parta	-9671
▁Apol	-9672
▁protein	-9673
▁ortalarında	-9674
▁müdürü	-9675
▁kendisinin	-9676
▁Chel	-9677
çın	-9678
▁Vinc	-9679
▁1944'	-9680
▁Karabük	-9681
nep	-9682
▁Imp	-9683
▁şüp	-9684
▁feth	-9685
▁Yarımadası	-9686
abe	-9687
▁Nint	-9688
▁Geliştir	-9689
▁bozukluk	-9690
sini	-9691
▁Siyah	-9692
▁yerleşti	-9693
▁rektör	-9694
▁Oyuncusu	-9695
ual	-9696
▁Amsterdam	-9697
anz	-9698
cal	-9699
▁Mov	-9700
▁ışı	-9701
▁Remix	-9702
▁Seneg	-9703
▁anlatan	-9704
pat	-9705
▁Oyn	-9706
▁Sas	-9707
▁First	-9708
▁aşaması	-9709
▁Geleneksel	-9710
▁Ry	-9711
indi	-9712
gesel	-9713
▁Beat	-9714
▁yüzyıldan	-9715
epe	-9716
bour	-9717
▁1984'	-9718
▁Vikipedi	-9719
▁havayolu	-9720
▁durumlarda	-9721
▁Cry	-9722
▁Jud	-9723
▁Dans	-9724
▁Tahran	-9725
çü	-9726
▁um	-9727
▁Kadıköy	-9728
▁altyapısında	-9729
▁$	-9730
▁1:	-9731
▁Das	-9732
▁cinsiyet	-9733
▁bağımsızlığını	-9734
boy	-9735
usen	-9736
▁Dim	-9737
ebilecek	-9738
iha	-9739
/200	-9740
ağaç	-9741
elerek	-9742
▁olmaya	-9743
steri	-9744
▁Kural	-9745
▁asteroit	-9746
▁kişiye	-9747
▁Direktör	-9748
▁anlamında	-9749
/201	-9750
▁Mavi	-9751
▁türet	-9752
▁(2018)	-9753
▁çeyrek	-9754
▁paralel	-9755
▁partinin	-9756
▁Venezuela	-9757
▁tamamlayan	-9758
▁Under	-9759
adıktan	-9760
▁türündeki	-9761
▁bağlanmıştır	-9762
ss	-9763
burgh	-9764
▁Glob	-9765
▁Farsça	-9766
▁Museum	-9767
eau	-9768
▁Dog	-9769
▁Hand	-9770
Almanca	-9771
▁varlık	-9772
▁Fransızlar	-9773
▁oluşturmak	-9774
orp	-9775
üğü	-9776
acar	-9777
rada	-9778
▁15 	-9779
▁Cle	-9780
uther	-9781
ecep	-9782
ique	-9783
▁Got	-9784
▁2011:	-9785
▁Cengiz	-9786
▁Teşkil	-9787
▁yöneticisi	-9788
är	-9789
▁Bru	-9790
▁1909	-9791
▁post	-9792
▁Bakır	-9793
▁futbolu	-9794
ng	-9795
▁Fern	-9796
▁sakin	-9797
▁şarkısıyla	-9798
▁1896	-9799
▁Trak	-9800
▁Marsh	-9801
▁fe	-9802
last	-9803
▁Roc	-9804
▁Norman	-9805
▁sekreter	-9806
▁yoğunluğu	-9807
▁Dat	-9808
▁zehir	-9809
▁DNA	-9810
▁Ful	-9811
▁Yang	-9812
▁yaşar	-9813
▁aralık	-9814
▁yedinci	-9815
▁Başbakanı	-9816
html	-9817
▁Liz	-9818
▁1911	-9819
▁icra	-9820
▁maruz	-9821
▁suyun	-9822
▁İdare	-9823
▁motoru	-9824
▁nör	-9825
▁Marg	-9826
▁İmam	-9827
▁sundu	-9828
▁Sistemi	-9829
▁teorisi	-9830
▁yayımlan	-9831
▁fantastik	-9832
bro	-9833
▁Hur	-9834
▁sig	-9835
▁şov	-9836
▁1000	-9837
▁1983'	-9838
▁piyano	-9839
alandır	-9840
▁Charlie	-9841
▁sıralama	-9842
▁dışındaki	-9843
ès	-9844
saray	-9845
▁1900	-9846
▁Kurguda	-9847
meli	-9848
▁Flam	-9849
▁Division	-9850
oşa	-9851
jder	-9852
antaj	-9853
▁Astr	-9854
▁Domin	-9855
▁Doğal	-9856
 –	-9857
▁Hız	-9858
▁1969'	-9859
▁basınç	-9860
▁Patrick	-9861
▁parishler	-9862
▁Ülke	-9863
▁yanına	-9864
▁liderleri	-9865
▁programlama	-9866
▁Lefk	-9867
▁Filmi	-9868
▁tıbbi	-9869
▁Cro	-9870
▁ucu	-9871
▁Erdem	-9872
olution	-9873
▁Ölümler	-9874
ât	-9875
▁Gay	-9876
▁Power	-9877
▁konferans	-9878
▁Hart	-9879
▁klas	-9880
▁şans	-9881
▁nükleer	-9882
▁2003:	-9883
uer	-9884
ramv	-9885
▁Dokuz	-9886
▁incelen	-9887
▁İşletme	-9888
▁Rıza	-9889
▁buluş	-9890
▁bastır	-9891
▁şairleri	-9892
▁istatistik	-9893
ılaş	-9894
Su	-9895
ener	-9896
▁Wilson	-9897
▁1974'	-9898
▁sokak	-9899
çay	-9900
▁Aust	-9901
▁kavuş	-9902
feransı	-9903
▁Doctor	-9904
▁sonlandır	-9905
▁Twitter	-9906
hay	-9907
▁Bağdat	-9908
▁yarısında	-9909
▁heykeltıraş	-9910
▁Bros	-9911
▁Galerisi	-9912
▁kişilerin	-9913
▁ısı	-9914
▁Kevin	-9915
▁Schles	-9916
▁Samsunspor	-9917
ić	-9918
▁örneği	-9919
▁atletler	-9920
ografya	-9921
usundaki	-9922
▁Platform	-9923
▁göstermiştir	-9924
-22	-9925
abad	-9926
▁Moz	-9927
▁Uçak	-9928
▁skor	-9929
▁değerli	-9930
▁mercekli	-9931
livan	-9932
▁Arena	-9933
▁ayrılan	-9934
▁Vilayeti	-9935
▁albümünün	-9936
▁Kale	-9937
▁Yardımcılığı	-9938
üd	-9939
dol	-9940
▁Eg	-9941
▁frek	-9942
▁Önce	-9943
▁Çiçek	-9944
▁Gazete	-9945
▁oyunun	-9946
OM	-9947
ites	-9948
▁Ital	-9949
▁bahç	-9950
▁denilen	-9951
▁Dünyanın	-9952
▁Kob	-9953
arşova	-9954
▁California	-9955
▁Meş	-9956
anlarda	-9957
▁2010-11	-9958
▁eklen	-9959
▁Güncel	-9960
▁bölgelerde	-9961
▁mi	-9962
▁Özgün	-9963
▁anılan	-9964
▁finalinde	-9965
IT	-9966
▁Tu	-9967
▁Mobile	-9968
▁mangaları	-9969
EN	-9970
▁denet	-9971
▁komünist	-9972
96	-9973
▁37	-9974
yüzü	-9975
▁(1991)	-9976
▁yetişkin	-9977
▁çalıştığı	-9978
▁Ya	-9979
▁Mario	-9980
▁Ze	-9981
mund	-9982
tury	-9983
iyesi	-9984
▁Kiev	-9985
▁halkın	-9986
rof	-9987
oçent	-9988
▁Prag	-9989
▁dönen	-9990
▁ağırlığı	-9991
ness	-9992
agram	-9993
▁2002:	-9994
▁Albümde	-9995
▁muhalef	-9996
iyalı	-9997
▁Pul	-9998
ultan	-9999
▁İstik	-10000
▁getiren	-10001
▁sıradan	-10002
şah	-10003
▁Rud	-10004
▁düzeyde	-10005
abilirler	-10006
.:	-10007
▁Salon	-10008
iyop	-10009
▁Pres	-10010
▁Çetin	-10011
▁Bundan	-10012
▁Meydanı	-10013
laj	-10014
▁Kuv	-10015
▁Arke	-10016
rekoromen	-10017
▁ku	-10018
▁Num	-10019
▁Üzer	-10020
▁alkol	-10021
▁Kurucu	-10022
▁alınarak	-10023
-2009	-10024
içesi	-10025
▁Boliv	-10026
▁konuşma	-10027
ра	-10028
niyet	-10029
▁bağış	-10030
▁adları	-10031
▁İlişkiler	-10032
tipi	-10033
▁Dance	-10034
▁erişim	-10035
▁Nintendo	-10036
▁arasından	-10037
▁Filipinler	-10038
▁Gy	-10039
işik	-10040
olos	-10041
ouri	-10042
▁üstü	-10043
▁temalı	-10044
▁Sayfası	-10045
▁öv	-10046
▁Cir	-10047
▁Faz	-10048
▁yem	-10049
▁etkinliği	-10050
atom	-10051
ipleri	-10052
▁kopya	-10053
anlardan	-10054
▁gösterilen	-10055
▁Kin	-10056
▁gar	-10057
ikatür	-10058
▁beğen	-10059
▁Isparta	-10060
83	-10061
IN	-10062
▁Kenn	-10063
▁padişah	-10064
Un	-10065
onia	-10066
aboratuvar	-10067
bus	-10068
wich	-10069
▁off	-10070
▁çam	-10071
▁detay	-10072
▁Mısırlı	-10073
▁kısmını	-10074
▁işbirliği	-10075
özü	-10076
▁Bod	-10077
simum	-10078
▁değişken	-10079
▁voleybolcular	-10080
gart	-10081
▁Yolu	-10082
▁1977'	-10083
▁ligde	-10084
SD	-10085
pir	-10086
▁Vo	-10087
▁Chal	-10088
▁2013:	-10089
▁Pekin	-10090
▁Indiana	-10091
▁başbakanı	-10092
▁Plak	-10093
▁1975'	-10094
▁Nijerya	-10095
▁incelem	-10096
▁Doğumlar	-10097
▁müsabaka	-10098
IC	-10099
rensi	-10100
▁Back	-10101
▁François	-10102
▁bol	-10103
ikler	-10104
▁Tekir	-10105
▁taşır	-10106
▁nitelendir	-10107
▁Türkmenistan	-10108
▁qu	-10109
şarkı	-10110
▁görür	-10111
▁kaybed	-10112
lüğüne	-10113
▁İlçenin	-10114
▁grekoromen	-10115
▁üreticileri	-10116
büs	-10117
▁Lag	-10118
üzgâr	-10119
enleri	-10120
▁Phy	-10121
▁sığ	-10122
ahtar	-10123
▁sınav	-10124
▁olanak	-10125
▁kontrolü	-10126
▁ekr	-10127
▁Brook	-10128
▁Dinamo	-10129
Par	-10130
hew	-10131
ğde	-10132
ılmaya	-10133
▁(1990)	-10134
▁sinyal	-10135
▁(2022):	-10136
▁karşıya	-10137
▁Senatosu	-10138
▁şirketidir	-10139
▁dam	-10140
▁memur	-10141
▁(2019)	-10142
▁rütbesine	-10143
▁rady	-10144
▁bölümden	-10145
AN	-10146
lash	-10147
▁Old	-10148
▁Sudan	-10149
iirt	-10150
itab	-10151
temi	-10152
▁Fair	-10153
▁Ivan	-10154
▁Tang	-10155
▁küme	-10156
▁Kilise	-10157
▁(7	-10158
▁Çiz	-10159
▁şif	-10160
▁Simp	-10161
▁Ulaş	-10162
▁meyve	-10163
▁Varşova	-10164
▁bölgeyi	-10165
sol	-10166
▁toz	-10167
▁ilham	-10168
▁Antark	-10169
▁Müdürü	-10170
gül	-10171
▁Pur	-10172
▁por	-10173
▁kutsal	-10174
Az	-10175
▁Get	-10176
▁mis	-10177
press	-10178
▁1981'	-10179
▁Schleswig	-10180
▁AR	-10181
▁ilg	-10182
ğının	-10183
▁1968'	-10184
▁araba	-10185
▁telefonları	-10186
Gür	-10187
tom	-10188
zig	-10189
▁Zor	-10190
ilmeye	-10191
▁Uygur	-10192
▁bucak	-10193
Ne	-10194
▁sıf	-10195
▁saniye	-10196
ilerle	-10197
▁Telev	-10198
▁Wrest	-10199
▁Yunus	-10200
▁Journal	-10201
▁havalim	-10202
MC	-10203
sea	-10204
ikat	-10205
▁Dec	-10206
▁beklen	-10207
▁Jacques	-10208
▁Projesi	-10209
▁Book	-10210
▁Çoğu	-10211
▁Parag	-10212
ılmasıyla	-10213
▁Christop	-10214
▁diplomat	-10215
▁ten	-10216
▁ayar	-10217
▁senaristler	-10218
elerle	-10219
▁Universal	-10220
▁diplomatik	-10221
▁Reb	-10222
▁Fall	-10223
▁Evren	-10224
▁idare	-10225
▁Harekâ	-10226
ape	-10227
▁eb	-10228
▁Sekreter	-10229
▁iP	-10230
ales	-10231
▁kov	-10232
▁ağız	-10233
▁Hop	-10234
▁Hann	-10235
asız	-10236
oria	-10237
ciğer	-10238
▁Güneydoğu	-10239
▁Müş	-10240
▁Tre	-10241
▁dokun	-10242
▁nüfusa	-10243
ely	-10244
▁ceph	-10245
▁Hels	-10246
▁Kraliçe	-10247
▁Lok	-10248
▁direktörü	-10249
▁kaynaklar	-10250
mec	-10251
ansa	-10252
eşme	-10253
▁pul	-10254
▁Lenin	-10255
▁Köprüsü	-10256
sinin	-10257
▁1971'	-10258
▁Liber	-10259
92	-10260
▁Burg	-10261
▁Pale	-10262
97	-10263
▁.4	-10264
▁TÜ	-10265
▁Mada	-10266
▁cerrah	-10267
▁fırlat	-10268
▁Anthony	-10269
▁yönetti	-10270
▁•	-10271
rot	-10272
ashi	-10273
▁30 	-10274
▁100'	-10275
▁Dede	-10276
▁kısıt	-10277
▁Çerkes	-10278
▁Cul	-10279
▁rengi	-10280
▁belirtti	-10281
▁derecede	-10282
SV	-10283
▁Nef	-10284
▁gazetecileri	-10285
Jap	-10286
▁mag	-10287
▁Sound	-10288
▁metro	-10289
▁Wikipedia	-10290
81	-10291
echt	-10292
▁Tos	-10293
▁bakanı	-10294
▁şampiyonları	-10295
lini	-10296
▁hızı	-10297
▁piskopos	-10298
▁işe	-10299
▁olun	-10300
▁Konservatuvarı	-10301
▁gerçekleştirdi	-10302
ozom	-10303
örler	-10304
▁Brad	-10305
▁nezd	-10306
▁işgali	-10307
▁molekül	-10308
ury	-10309
▁Py	-10310
esse	-10311
▁Gine	-10312
▁1967'	-10313
▁Durum	-10314
▁soyun	-10315
▁iktidar	-10316
▁(%	-10317
▁76	-10318
ogram	-10319
▁Encyc	-10320
▁bestel	-10321
▁Sos	-10322
▁Squ	-10323
▁pist	-10324
▁oluşturmaktadır	-10325
▁Tas	-10326
▁Acade	-10327
ilvanya	-10328
▁Enerji	-10329
▁getirilmiştir	-10330
este	-10331
▁hab	-10332
▁olacaktır	-10333
▁resmen	-10334
▁doğrult	-10335
▁oynamaya	-10336
▁ulaşmıştır	-10337
makla	-10338
07	-10339
ıva	-10340
▁Jenn	-10341
▁Kayıt	-10342
▁Roger	-10343
▁Peters	-10344
▁orkestra	-10345
erif	-10346
▁Mür	-10347
▁Rag	-10348
▁Arts	-10349
▁Série	-10350
kestrası	-10351
▁imzalanan	-10352
jin	-10353
oviç	-10354
▁Allen	-10355
▁albümünü	-10356
▁Anı	-10357
▁Home	-10358
owa	-10359
▁emr	-10360
olarak	-10361
▁krizi	-10362
▁Frankfurt	-10363
ünce	-10364
▁Ofisi	-10365
▁Siirt	-10366
▁Görsel	-10367
▁eliptik	-10368
▁markası	-10369
▁İsrailli	-10370
▁2000:	-10371
▁katılımcıları	-10372
odon	-10373
▁Burs	-10374
▁Paulo	-10375
▁Lefkoşa	-10376
▁kadrosuna	-10377
ilip	-10378
▁mant	-10379
▁Kongre	-10380
▁halkının	-10381
▁astronomik	-10382
▁Gençlerbirliği	-10383
itr	-10384
▁Hugo	-10385
▁Köln	-10386
▁sömür	-10387
lerdeki	-10388
▁kitabında	-10389
▁alanlarında	-10390
edo	-10391
▁PA	-10392
▁dergisinde	-10393
▁Tuna	-10394
▁Başak	-10395
▁Dayan	-10396
▁bulgu	-10397
▁Bibliy	-10398
▁İktisadi	-10399
▁К	-10400
isch	-10401
▁Koc	-10402
▁Yalnız	-10403
▁Tuş	-10404
▁etkinlikleri	-10405
lyn	-10406
keli	-10407
▁tüc	-10408
▁banka	-10409
▁Aksaray	-10410
▁Dijital	-10411
kür	-10412
ülf	-10413
▁Adan	-10414
▁Dili	-10415
▁Dist	-10416
▁Malezya	-10417
▁ard	-10418
▁hoş	-10419
ilendir	-10420
▁Reh	-10421
▁kaldığı	-10422
das	-10423
rac	-10424
issa	-10425
▁Çayı	-10426
▁Komedi	-10427
edan	-10428
here	-10429
▁Games	-10430
▁Kaptan	-10431
▁ayrılmış	-10432
▁sendromu	-10433
▁Mirasları	-10434
▁Şampiyonu	-10435
▁filmlerinde	-10436
▁Pac	-10437
▁ağı	-10438
▁Stat	-10439
▁usul	-10440
▁ederler	-10441
▁cisimler	-10442
▁arkadaşları	-10443
ilmez	-10444
▁Stone	-10445
▁Person	-10446
▁beldeye	-10447
AB	-10448
▁(8	-10449
▁Arg	-10450
Avrupa	-10451
▁verilerine	-10452
▁93	-10453
ages	-10454
▁birik	-10455
ileceği	-10456
▁yerinde	-10457
▁Jama	-10458
▁Sınır	-10459
▁okuma	-10460
▁Lisans	-10461
▁Moldova	-10462
▁gibidir	-10463
▁1976'	-10464
▁Tekirdağ	-10465
aux	-10466
bank	-10467
minal	-10468
▁Ayşe	-10469
ahiyat	-10470
▁Moğolistan	-10471
▁%9	-10472
▁(11	-10473
▁Ryan	-10474
▁meyv	-10475
▁Kuşat	-10476
▁yürür	-10477
▁Çukur	-10478
▁rekoru	-10479
▁direktörlük	-10480
▁öncü	-10481
eğiyle	-10482
▁1973'	-10483
▁sığın	-10484
▁Bunların	-10485
▁Donanması	-10486
▁oyuncusudur	-10487
▁Tig	-10488
-2010	-10489
▁işçi	-10490
▁Milan	-10491
▁Çelebi	-10492
Ak	-10493
20'	-10494
▁Rh	-10495
▁Zür	-10496
ümrük	-10497
▁Amaz	-10498
▁Prusya	-10499
▁camiler	-10500
▁Dördüncü	-10501
▁uyarlaması	-10502
▁ب	-10503
ines	-10504
▁attığı	-10505
▁geomet	-10506
fo	-10507
▁köye	-10508
▁(1989)	-10509
▁Haydar	-10510
▁kazanmış	-10511
▁Devletler	-10512
▁Değer	-10513
▁enstr	-10514
▁evrim	-10515
▁Primeira	-10516
erin	-10517
isiz	-10518
İtal	-10519
riyet	-10520
▁Maçı	-10521
▁Recep	-10522
▁hayal	-10523
▁Golden	-10524
▁şampiyonluğunu	-10525
9),	-10526
flix	-10527
iyeli	-10528
▁Moon	-10529
▁1941'	-10530
▁yargı	-10531
▁Calcio	-10532
ağanüstü	-10533
▁vs	-10534
▁Ces	-10535
▁Pay	-10536
▁oksi	-10537
azakâr	-10538
▁1956'	-10539
▁Davis	-10540
hendisi	-10541
▁eleştirmen	-10542
ui	-10543
enne	-10544
andin	-10545
▁Lord	-10546
▁Antarktika	-10547
Dünya	-10548
▁1957'	-10549
▁Arsen	-10550
Brezil	-10551
▁çeken	-10552
Yunanca	-10553
üşü	-10554
▁Kun	-10555
-2008	-10556
anger	-10557
▁kalmış	-10558
▁ülkelerin	-10559
▁İngilizler	-10560
▁KK	-10561
▁Hep	-10562
▁Vis	-10563
İspan	-10564
▁yönetici	-10565
▁kaynaklarda	-10566
üye	-10567
▁Zeynep	-10568
▁birlikleri	-10569
ekte	-10570
▁mini	-10571
▁süreci	-10572
▁haftalık	-10573
lemiş	-10574
▁işleri	-10575
▁Tunceli	-10576
▁anlatır	-10577
▁Özellikler	-10578
▁Cab	-10579
▁salonu	-10580
▁boyutlu	-10581
▁Havacılık	-10582
▁rakam	-10583
TS	-10584
inki	-10585
▁Ball	-10586
▁Benz	-10587
▁Emek	-10588
▁Hamil	-10589
▁sahib	-10590
oss	-10591
▁dolu	-10592
▁Avrup	-10593
▁Gabri	-10594
▁Saman	-10595
▁ister	-10596
▁Arp	-10597
▁sakat	-10598
▁görevde	-10599
athan	-10600
cinsel	-10601
▁Paraguay	-10602
▁Erol	-10603
▁tamamlandı	-10604
▁pandemisinden	-10605
evo	-10606
▁†	-10607
▁Stockholm	-10608
gal	-10609
ilk	-10610
▁tutuklandı	-10611
ej	-10612
urlu	-10613
▁otobüs	-10614
ysa	-10615
▁Ri	-10616
▁uf	-10617
▁pişir	-10618
▁yuvar	-10619
▁Sibirya	-10620
▁sahibidir	-10621
▁Bed	-10622
▁Tir	-10623
▁koz	-10624
▁Katıl	-10625
▁bacak	-10626
▁ürünler	-10627
▁MX	-10628
▁Jay	-10629
▁boya	-10630
▁Kazananlar	-10631
▁katlı	-10632
▁başvur	-10633
▁düşünc	-10634
yem	-10635
▁gri	-10636
▁Luis	-10637
▁yetmez	-10638
▁varlığını	-10639
▁prodüksiyon	-10640
▁otel	-10641
ikolata	-10642
▁Saldır	-10643
▁ülkeye	-10644
▁suikast	-10645
▁gitarist	-10646
▁hastalıkları	-10647
rig	-10648
▁çab	-10649
ector	-10650
▁Bors	-10651
▁Cemal	-10652
▁girdiği	-10653
▁metrosu	-10654
▁sponsor	-10655
▁nezdinde	-10656
▁maçlarını	-10657
▁yardımıyla	-10658
▁kullanıldığı	-10659
yonu	-10660
▁2001:	-10661
▁Color	-10662
▁metropol	-10663
▁М	-10664
▁Duy	-10665
▁Lah	-10666
▁gül	-10667
▁FIBA	-10668
▁yüzyıla	-10669
tra	-10670
▁yükselmiştir	-10671
FTA	-10672
▁Celt	-10673
="2"|-	-10674
▁sezonudur	-10675
inus	-10676
▁Kalp	-10677
▁Kendi	-10678
▁kahraman	-10679
py	-10680
dişi	-10681
▁Nord	-10682
▁bulunmaktaydı	-10683
ault	-10684
oter	-10685
▁Pens	-10686
▁İçin	-10687
▁tabak	-10688
▁Run	-10689
▁Adını	-10690
▁hayata	-10691
▁protesto	-10692
anlarından	-10693
▁bölgesindeki	-10694
93	-10695
biye	-10696
▁Sank	-10697
▁uyum	-10698
▁yönlendir	-10699
▁araştırmalar	-10700
SF	-10701
▁Ele	-10702
▁Pad	-10703
owski	-10704
▁Nuri	-10705
▁Buffy	-10706
tic	-10707
▁beden	-10708
▁Burdur	-10709
▁nahiyesine	-10710
▁uygulaması	-10711
▁Lost	-10712
▁(1988)	-10713
▁etiketiyle	-10714
▁görüntülediği	-10715
ako	-10716
▁Bahç	-10717
▁Child	-10718
▁bahşı	-10719
memiştir	-10720
▁Karolina	-10721
▁XV	-10722
lamalar	-10723
leridir	-10724
▁cinsler	-10725
▁Konferansı	-10726
▁parlamento	-10727
▁42	-10728
▁Doğa	-10729
▁blok	-10730
▁olimp	-10731
Brezilya	-10732
▁kontluğunda	-10733
▁Halep	-10734
▁Stand	-10735
▁yakıt	-10736
▁arayüz	-10737
▁Houston	-10738
eley	-10739
ends	-10740
cılığı	-10741
▁kraliyet	-10742
▁Nem	-10743
▁gerektiğini	-10744
94	-10745
▁Elektronik	-10746
idin	-10747
ümlü	-10748
▁Çor	-10749
▁kalit	-10750
▁topluluğu	-10751
alo	-10752
▁atış	-10753
▁trafik	-10754
▁genetik	-10755
▁finalist	-10756
MP	-10757
ий	-10758
eka	-10759
sinde	-10760
▁2014:	-10761
▁şerit	-10762
▁biçimi	-10763
▁dönemlerde	-10764
▁Lyon	-10765
▁dağıtım	-10766
▁böyle	-10767
▁kayıtlarda	-10768
▁This	-10769
▁arazi	-10770
▁dergileri	-10771
izan	-10772
ğeri	-10773
▁Mach	-10774
▁üreticisi	-10775
▁albümünden	-10776
ów	-10777
Ger	-10778
ardi	-10779
▁köp	-10780
▁Kahram	-10781
▁kullanılmaya	-10782
▁Gan	-10783
irken	-10784
▁Netflix	-10785
▁müzeler	-10786
▁prodüktör	-10787
üydü	-10788
▁plat	-10789
▁birini	-10790
▁Kırşehir	-10791
ükem	-10792
▁Hub	-10793
▁1835	-10794
▁Site	-10795
▁Napol	-10796
alisyon	-10797
abilmesi	-10798
▁enfeksiyon	-10799
▁belirlenen	-10800
▁Ras	-10801
▁Reş	-10802
▁ağz	-10803
▁hukukçu	-10804
▁Sün	-10805
▁masa	-10806
▁çocuğ	-10807
▁Salonu	-10808
▁Zagreb	-10809
▁torunu	-10810
▁zincir	-10811
antum	-10812
▁ürünü	-10813
▁2013-14	-10814
uen	-10815
worth	-10816
▁Fars	-10817
▁yaşta	-10818
▁Miller	-10819
▁çevrili	-10820
stil	-10821
▁Diego	-10822
▁Finaller	-10823
gazi	-10824
itat	-10825
▁iyon	-10826
▁Abhaz	-10827
▁Henri	-10828
urs	-10829
▁Sv	-10830
▁Kle	-10831
▁Ore	-10832
▁mağara	-10833
▁yöntemi	-10834
ettiş	-10835
▁Jung	-10836
▁Kongo	-10837
▁buraya	-10838
▁vazgeç	-10839
kıs	-10840
çam	-10841
▁Niğde	-10842
▁Şehri	-10843
ettebat	-10844
▁madaly	-10845
▁Mig	-10846
▁cemaat	-10847
▁göğ	-10848
▁ente	-10849
▁1918'	-10850
▁bulan	-10851
▁Douglas	-10852
▁güreşçileri	-10853
▁tasarlanmıştır	-10854
hag	-10855
nar	-10856
▁Log	-10857
▁Heinrich	-10858
▁44	-10859
icht	-10860
▁Göç	-10861
▁girerek	-10862
▁gazetesi	-10863
▁Jin	-10864
▁Pist	-10865
▁baba	-10866
▁Miami	-10867
▁Horasan	-10868
▁Portakal	-10869
▁Erc	-10870
▁Ner	-10871
▁onar	-10872
KK	-10873
▁Akın	-10874
▁Nich	-10875
▁1955'	-10876
▁takımlarında	-10877
ustik	-10878
▁Komp	-10879
▁yaparken	-10880
wan	-10881
▁olumsuz	-10882
AA	-10883
▁edip	-10884
▁sanatı	-10885
Ay	-10886
naeus	-10887
▁Cruz	-10888
▁yaban	-10889
▁eyaleti	-10890
▁Resimler	-10891
▁sessiz	-10892
▁Mücadele	-10893
öh	-10894
▁om	-10895
▁Well	-10896
▁(1987)	-10897
▁sunuldu	-10898
▁vermeye	-10899
▁belirsiz	-10900
▁PC	-10901
ebilmektedir	-10902
ril	-10903
▁2-1	-10904
ezerv	-10905
▁Fırat	-10906
igi	-10907
laz	-10908
▁Çav	-10909
▁Kang	-10910
▁manga	-10911
enti	-10912
▁uğram	-10913
▁parmak	-10914
▁kesiminde	-10915
öğ	-10916
izma	-10917
▁Lab	-10918
ılışı	-10919
▁madal	-10920
▁Parlamento	-10921
icle	-10922
-2011	-10923
▁veda	-10924
olitik	-10925
▁takma	-10926
▁yağış	-10927
▁Diş	-10928
▁bölgedeki	-10929
▁68	-10930
ektaş	-10931
▁teklisi	-10932
▁Boğaziçi	-10933
▁cüm	-10934
doğum	-10935
▁üste	-10936
▁Kolej	-10937
-2012	-10938
▁1986:	-10939
▁Tatlı	-10940
▁Çağdaş	-10941
▁altyapısı	-10942
▁profesörü	-10943
▁Çünkü	-10944
avv	-10945
▁54	-10946
▁Gust	-10947
▁hekt	-10948
ceğini	-10949
▁Zafer	-10950
▁fabrika	-10951
▁zorunlu	-10952
▁listesidir	-10953
ев	-10954
house	-10955
▁1905	-10956
▁1943'	-10957
▁yumuşak	-10958
ич	-10959
imb	-10960
emon	-10961
▁Rab	-10962
isiydi	-10963
▁inter	-10964
▁Ürdün	-10965
alis	-10966
▁türünde	-10967
▁Dipnotlar	-10968
▁gazetesinde	-10969
âz	-10970
tico	-10971
▁Stutt	-10972
▁işlemi	-10973
kut	-10974
▁Hes	-10975
▁1958'	-10976
duk	-10977
▁Sz	-10978
▁Kelly	-10979
dağı	-10980
ilia	-10981
▁1904	-10982
▁dava	-10983
▁baskın	-10984
tanın	-10985
ükemmel	-10986
▁büyükelçileri	-10987
çası	-10988
▁Basket	-10989
▁başlıklı	-10990
▁şarkıyla	-10991
aten	-10992
▁kaza	-10993
arm	-10994
▁Sher	-10995
▁devamı	-10996
▁ülkeleri	-10997
ror	-10998
onim	-10999
▁Now	-11000
ipler	-11001
▁ikiye	-11002
▁British	-11003
▁Bunlardan	-11004
▁م	-11005
▁Pho	-11006
▁len	-11007
luğun	-11008
▁devral	-11009
▁bağımsızlık	-11010
▁Kenan	-11011
▁Heykel	-11012
▁sağlay	-11013
OL	-11014
ayev	-11015
ople	-11016
tıcı	-11017
vers	-11018
▁Çub	-11019
▁1876	-11020
▁kupa	-11021
▁Carol	-11022
▁gereği	-11023
▁kızıl	-11024
▁yeterli	-11025
▁görmüştür	-11026
▁Tiyatroları	-11027
▁Kont	-11028
▁İkinc	-11029
▁element	-11030
▁başarıları	-11031
▁gruplardan	-11032
isie	-11033
▁oğl	-11034
▁sip	-11035
▁nehr	-11036
▁yeme	-11037
▁1946'	-11038
▁rakibi	-11039
▁Alexand	-11040
lerindeki	-11041
abileceğini	-11042
ahı	-11043
▁SV	-11044
▁Süt	-11045
▁Yurt	-11046
▁akarsu	-11047
▁Moh	-11048
▁Üye	-11049
▁akıl	-11050
▁Bilecik	-11051
▁Wall	-11052
▁Wild	-11053
▁yatırım	-11054
▁1906	-11055
▁atıfta	-11056
▁kentin	-11057
▁edebilir	-11058
▁bulunuyordu	-11059
şan	-11060
gain	-11061
insk	-11062
▁etap	-11063
▁Dönemi	-11064
▁kalıcı	-11065
▁güçlendir	-11066
afak	-11067
▁Sac	-11068
▁düşen	-11069
▁yapımlar	-11070
▁gazeteler	-11071
▁gazeteciler	-11072
▁kalıntıları	-11073
?"	-11074
▁Nah	-11075
▁Adolf	-11076
▁Bangla	-11077
▁Maçlar	-11078
irinç	-11079
uluğunu	-11080
▁üreten	-11081
▁Science	-11082
▁çözünür	-11083
▁Çekoslovakya	-11084
Sa	-11085
pop	-11086
▁Muz	-11087
▁Webs	-11088
▁hist	-11089
ediler	-11090
▁1999:	-11091
andinav	-11092
▁firması	-11093
▁oynamış	-11094
roit	-11095
▁Wer	-11096
▁his	-11097
▁Eyüp	-11098
▁Lam	-11099
tikam	-11100
▁Karag	-11101
▁Comics	-11102
uşturucu	-11103
▁güneyde	-11104
ersh	-11105
aklık	-11106
▁Seul	-11107
▁önüne	-11108
Sp	-11109
▁İbran	-11110
▁girmiş	-11111
▁hokeyi	-11112
▁oluşmuştur	-11113
unum	-11114
▁günümüzdeki	-11115
▁46	-11116
uble	-11117
▁beyin	-11118
aktaydı	-11119
▁yıldır	-11120
leştirme	-11121
▁Christopher	-11122
▁yarışan	-11123
tedir	-11124
▁vurg	-11125
▁İpek	-11126
▁Efsan	-11127
▁yolları	-11128
anlığında	-11129
▁güv	-11130
▁Alanı	-11131
▁Master	-11132
▁sürgün	-11133
ânı	-11134
▁Hin	-11135
▁kül	-11136
▁kıyaf	-11137
▁makale	-11138
▁vizyona	-11139
▁yayınlanmış	-11140
▁Yum	-11141
▁ker	-11142
light	-11143
▁cinsi	-11144
▁Kanunu	-11145
▁2012-13	-11146
▁devletin	-11147
sit	-11148
▁GB	-11149
linik	-11150
▁Zeki	-11151
lection	-11152
▁Kahire	-11153
▁Kırklar	-11154
▁görülebilir	-11155
▁Ton	-11156
▁Tayvan	-11157
▁Edebiyatı	-11158
▁arrondissement	-11159
ruklu	-11160
osunda	-11161
▁çeşidi	-11162
▁avukatları	-11163
▁52	-11164
▁Hâ	-11165
▁inanç	-11166
▁geçmişi	-11167
▁Uygulama	-11168
▁seçimlerde	-11169
emb	-11170
eyz	-11171
raw	-11172
▁Eug	-11173
▁kok	-11174
▁süreli	-11175
▁Eth	-11176
bourne	-11177
▁Almanlar	-11178
▁keşfedildi	-11179
▁listelerinde	-11180
▁doğrultusunda	-11181
inaj	-11182
stri	-11183
▁lez	-11184
▁Japonca	-11185
▁katılmaya	-11186
▁mühendislik	-11187
▁kıv	-11188
▁Palm	-11189
▁eline	-11190
▁Sidney	-11191
▁mahkûm	-11192
▁eskiden	-11193
▁savaşları	-11194
GA	-11195
ışla	-11196
▁İvan	-11197
▁Girit	-11198
▁Missouri	-11199
Ah	-11200
rd	-11201
▁Süm	-11202
▁1966'	-11203
▁Cross	-11204
▁Hakları	-11205
▁takımıdır	-11206
rekar	-11207
▁Fire	-11208
▁Steven	-11209
▁yüzücü	-11210
▁Bernard	-11211
▁bitkiler	-11212
▁Fun	-11213
üksel	-11214
▁Musa	-11215
aalanı	-11216
▁(14	-11217
▁Evi	-11218
abase	-11219
▁Hakkı	-11220
▁Sports	-11221
▁alınır	-11222
▁dö	-11223
burt	-11224
-2000	-11225
▁konut	-11226
akar	-11227
ries	-11228
▁Boys	-11229
▁söylen	-11230
▁uygulamaları	-11231
▁Diy	-11232
▁lan	-11233
▁Jason	-11234
▁insanın	-11235
imlerinde	-11236
ла	-11237
▁Rain	-11238
▁manz	-11239
▁kıyas	-11240
luğunun	-11241
▁Yaprak	-11242
▁sosyalist	-11243
dai	-11244
ogen	-11245
rence	-11246
▁BAFTA	-11247
ellikle	-11248
▁birine	-11249
▁niteli	-11250
▁mimarisi	-11251
▁çıkarılan	-11252
▁bölümünden	-11253
aci	-11254
▁Bomb	-11255
mediği	-11256
▁evden	-11257
▁vergi	-11258
▁Müzikal	-11259
anus	-11260
dört	-11261
▁Düzce	-11262
▁German	-11263
▁Chelsea	-11264
▁konuşulan	-11265
kie	-11266
▁Chan	-11267
▁İhsan	-11268
pro	-11269
▁04	-11270
▁Ecz	-11271
▁risk	-11272
▁André	-11273
▁cadde	-11274
▁Samuel	-11275
▁Bölümler	-11276
▁gerçekleşir	-11277
wen	-11278
▁Tibet	-11279
▁anlatı	-11280
▁katman	-11281
▁sertif	-11282
▁örneğin	-11283
▁başlattı	-11284
▁Başarılar	-11285
▁Etimoloji	-11286
ichi	-11287
tası	-11288
▁darbe	-11289
▁kuzeyde	-11290
▁tanrıça	-11291
▁kenarında	-11292
▁modelidir	-11293
evre	-11294
▁üyeler	-11295
▁yakalan	-11296
lum	-11297
▁25 	-11298
▁800	-11299
▁Ric	-11300
▁serv	-11301
▁Basın	-11302
▁asist	-11303
▁büyüy	-11304
▁yiyecek	-11305
ин	-11306
şar	-11307
sman	-11308
▁krom	-11309
▁Ruslar	-11310
▁vermiş	-11311
▁muharebeleri	-11312
–18	-11313
▁Pel	-11314
▁kökeni	-11315
▁tırman	-11316
▁buradan	-11317
▁tanrısı	-11318
▁Dek	-11319
ansız	-11320
▁Franz	-11321
▁Swift	-11322
▁kapan	-11323
▁Etiyop	-11324
▁onlara	-11325
▁şarkıdır	-11326
▁2'	-11327
▁bec	-11328
▁başlangıç	-11329
▁Ltd	-11330
▁nam	-11331
▁Trav	-11332
▁sonraları	-11333
IM	-11334
▁â	-11335
rev	-11336
agog	-11337
▁Otto	-11338
▁şeklindedir	-11339
Top	-11340
düğü	-11341
vili	-11342
ristal	-11343
▁Hazır	-11344
▁parçalar	-11345
▁Gul	-11346
▁Müze	-11347
▁doku	-11348
▁Doğru	-11349
▁Borsası	-11350
▁kariyerinin	-11351
eds	-11352
▁10,	-11353
▁Ziraat	-11354
▁5 	-11355
▁Ti	-11356
dong	-11357
ohum	-11358
▁Pep	-11359
▁Rose	-11360
▁yazma	-11361
▁sunucusu	-11362
▁akademisyenler	-11363
▁Özdemir	-11364
aye	-11365
esc	-11366
▁Zer	-11367
▁Şir	-11368
avyera	-11369
▁1961'	-11370
▁1962'	-11371
▁olayı	-11372
▁tarihten	-11373
▁şehirleri	-11374
sına	-11375
▁Tex	-11376
▁Tug	-11377
▁Girls	-11378
▁Major	-11379
▁Sezonu	-11380
▁kapsamlı	-11381
▁havacılık	-11382
kurmay	-11383
▁yenilg	-11384
▁Gürcüce	-11385
▁dayanık	-11386
▁nehirler	-11387
▁Stuttgart	-11388
▁gösterdiği	-11389
▁Hell	-11390
▁Atlanta	-11391
▁nih	-11392
ümcek	-11393
▁Renk	-11394
▁Yağlı	-11395
▁ertesi	-11396
gs	-11397
krim	-11398
▁Bür	-11399
▁His	-11400
▁Pre	-11401
▁1942'	-11402
atörler	-11403
ayolları	-11404
gul	-11405
borg	-11406
▁muk	-11407
▁Hattı	-11408
phy	-11409
ırnak	-11410
▁ikil	-11411
▁Benim	-11412
▁alması	-11413
▁sayede	-11414
▁dayanır	-11415
▁Television	-11416
non	-11417
via	-11418
▁mor	-11419
düstri	-11420
▁1948'	-11421
▁netic	-11422
▁üçünc	-11423
▁etkileri	-11424
▁sekizinci	-11425
▁verilmektedir	-11426
FK	-11427
ladır	-11428
▁1997:	-11429
▁yazıları	-11430
▁kurumları	-11431
▁kendilerini	-11432
oyd	-11433
atlı	-11434
▁Lake	-11435
üyordu	-11436
▁Müsab	-11437
▁golünü	-11438
▁nitelik	-11439
▁uzunluk	-11440
▁Orkestrası	-11441
üvey	-11442
▁Secret	-11443
▁Vincent	-11444
leki	-11445
▁Abbas	-11446
▁Tümen	-11447
çilerin	-11448
▁Segunda	-11449
Fransızca	-11450
▁teknolojisi	-11451
gıtay	-11452
▁Mali	-11453
▁Bangladeş	-11454
▁defnedildi	-11455
▁kalıntılar	-11456
1-	-11457
aco	-11458
siye	-11459
laşmış	-11460
bis	-11461
▁Adnan	-11462
▁Olay	-11463
▁1959'	-11464
▁Geniş	-11465
▁Johann	-11466
▁Studio	-11467
▁savaşın	-11468
▁Temsilciler	-11469
On	-11470
▁49	-11471
▁Wol	-11472
▁Atlé	-11473
▁Kıta	-11474
iciler	-11475
dön	-11476
▁(4)	-11477
▁kayak	-11478
▁yapıt	-11479
▁gemileri	-11480
än	-11481
any	-11482
kit	-11483
▁azın	-11484
▁Çarş	-11485
▁femin	-11486
▁Cannes	-11487
▁ittifak	-11488
▁Pensilvanya	-11489
-08	-11490
uto	-11491
▁1939'	-11492
▁1963'	-11493
▁Queen	-11494
▁Hayvan	-11495
▁Kolordu	-11496
▁gönüllü	-11497
▁savaşta	-11498
▁Metropol	-11499
imine	-11500
▁bağlıyken	-11501
▁Şev	-11502
ılmaz	-11503
▁Murad	-11504
▁saptan	-11505
▁Önceki	-11506
tım	-11507
▁Tapın	-11508
▁sürmüştür	-11509
▁57	-11510
▁Nehir	-11511
▁yapay	-11512
▁İktisat	-11513
▁pp	-11514
aham	-11515
iyye	-11516
ters	-11517
asaki	-11518
▁NASA	-11519
▁(1986)	-11520
▁videosu	-11521
At	-11522
iva	-11523
ucky	-11524
artesi	-11525
▁Kadir	-11526
formation	-11527
▁ikincisi	-11528
▁toprakları	-11529
delen	-11530
▁Women	-11531
▁Howard	-11532
▁düzeyi	-11533
▁satranç	-11534
▁Abdülham	-11535
-09	-11536
idea	-11537
▁Kıy	-11538
▁Clark	-11539
zo	-11540
▁(12	-11541
▁Niz	-11542
çıları	-11543
▁yarışmaya	-11544
▁familyasıdır	-11545
▁bilinmemektedir	-11546
▁u	-11547
▁Á	-11548
ürken	-11549
▁Pass	-11550
▁bağlam	-11551
herine	-11552
▁Techn	-11553
82	-11554
ones	-11555
▁sad	-11556
azesi	-11557
▁Sebasti	-11558
▁Ansiklop	-11559
▁Encyclop	-11560
▁soruştur	-11561
▁deri	-11562
▁Hikâye	-11563
▁mümkündür	-11564
▁yapılacak	-11565
ots	-11566
etta	-11567
▁175	-11568
▁Adams	-11569
▁Jacob	-11570
▁Örnek	-11571
▁Senato	-11572
▁66	-11573
▁Başka	-11574
▁artan	-11575
▁(1985)	-11576
▁Levent	-11577
eo	-11578
edar	-11579
iyaz	-11580
andal	-11581
▁Azer	-11582
▁Call	-11583
▁Fark	-11584
▁Mini	-11585
▁Century	-11586
▁yapımında	-11587
▁Emirlikleri	-11588
oca	-11589
ozor	-11590
▁Lap	-11591
▁mus	-11592
gorit	-11593
▁Chann	-11594
▁EC	-11595
▁1964'	-11596
▁Bulut	-11597
mr	-11598
roman	-11599
▁1901	-11600
▁Penn	-11601
▁Soul	-11602
▁vize	-11603
▁1919'	-11604
As	-11605
şu	-11606
dom	-11607
▁Pit	-11608
▁Pon	-11609
▁eleştiriler	-11610
▁Bec	-11611
onsin	-11612
▁Rick	-11613
▁ikamet	-11614
▁sıraya	-11615
▁Albümleri	-11616
has	-11617
-2007	-11618
geler	-11619
▁Odası	-11620
▁köylü	-11621
▁Ertesi	-11622
▁anlaşmaz	-11623
▁ordusunun	-11624
▁yaptıkları	-11625
▁Performansı	-11626
▁Gior	-11627
▁Lamb	-11628
▁Meryem	-11629
▁Napoli	-11630
▁tanıştı	-11631
▁Daw	-11632
essee	-11633
▁Polit	-11634
▁Sankt	-11635
oğulları	-11636
▁2009-10	-11637
▁grubuna	-11638
▁protokol	-11639
▁Kırgızistan	-11640
adin	-11641
▁acı	-11642
-2014	-11643
▁Valen	-11644
▁yedek	-11645
▁Yargıtay	-11646
▁Ja	-11647
▁nisp	-11648
▁topr	-11649
▁Etkin	-11650
▁Slovak	-11651
▁Akademik	-11652
▁Atlético	-11653
▁faaliyetleri	-11654
drama	-11655
▁ölçek	-11656
▁yürütülmektedir	-11657
▁%7	-11658
▁VII	-11659
▁Yur	-11660
▁1975:	-11661
▁Soğuk	-11662
▁Felsefe	-11663
▁bulur	-11664
▁Filmde	-11665
▁hukuku	-11666
▁Ekvador	-11667
▁Helsinki	-11668
▁sistemini	-11669
▁UK	-11670
▁Baby	-11671
▁Four	-11672
▁ilçenin	-11673
▁İncelen	-11674
wick	-11675
▁peş	-11676
ergâh	-11677
▁olsun	-11678
▁Bavyera	-11679
lex	-11680
adın	-11681
▁iskel	-11682
▁anısına	-11683
▁43	-11684
▁Yüzyıl	-11685
▁sıralan	-11686
▁dönemine	-11687
▁görevden	-11688
▁30.	-11689
▁Athlet	-11690
▁kullanılması	-11691
usta	-11692
Gürcü	-11693
ium	-11694
avru	-11695
attle	-11696
üphane	-11697
De	-11698
Liga	-11699
▁Reis	-11700
▁Intel	-11701
▁Arslan	-11702
▁Online	-11703
▁kurmuştur	-11704
3,0	-11705
uta	-11706
▁müf	-11707
islav	-11708
▁şimdi	-11709
▁tanesi	-11710
▁öğretmeni	-11711
imo	-11712
akan	-11713
▁zamandan	-11714
▁kalabalık	-11715
▁mühendisi	-11716
çık	-11717
▁Çöl	-11718
▁sebebi	-11719
▁2019-20	-11720
▁karşılan	-11721
▁sistemine	-11722
▁merkezinin	-11723
▁psikolojik	-11724
▁tanınmaktadır	-11725
acy	-11726
-2013	-11727
▁büyüm	-11728
▁kullanılmış	-11729
▁se	-11730
agen	-11731
lack	-11732
▁IMDb	-11733
▁ondan	-11734
▁(1984)	-11735
▁Bursaspor	-11736
egen	-11737
ohama	-11738
▁Başrol	-11739
▁gelerek	-11740
▁Astronom	-11741
sam	-11742
▁47	-11743
▁Gur	-11744
▁söylenir	-11745
▁döneminin	-11746
▁güneybatı	-11747
Hz	-11748
4,0	-11749
▁177	-11750
-2006	-11751
ğunda	-11752
▁Herb	-11753
▁çaba	-11754
▁Sofya	-11755
▁yarıştı	-11756
▁istihbarat	-11757
DP	-11758
Con	-11759
ediv	-11760
▁Jar	-11761
▁1998:	-11762
▁hekim	-11763
omon	-11764
irmen	-11765
▁bebek	-11766
▁Yazılım	-11767
▁plastik	-11768
▁yüzölçüm	-11769
Gen	-11770
Har	-11771
iji	-11772
▁görünür	-11773
▁Im	-11774
beyi	-11775
▁Are	-11776
▁Lip	-11777
izmin	-11778
odyum	-11779
▁Celal	-11780
▁sezonunu	-11781
▁programında	-11782
eke	-11783
kate	-11784
▁Gray	-11785
▁Filmler	-11786
▁filmlerde	-11787
▁Kızılderili	-11788
uil	-11789
side	-11790
tanı	-11791
ordon	-11792
▁Yedi	-11793
▁Sarah	-11794
▁Vakıf	-11795
▁olmaktadır	-11796
ios	-11797
mede	-11798
▁com	-11799
lıyor	-11800
▁Arif	-11801
▁Arşiv	-11802
▁firma	-11803
▁zamana	-11804
▁değişen	-11805
▁güçleri	-11806
▁tanımlanmıştır	-11807
▁fet	-11808
▁doğuda	-11809
▁Futbola	-11810
▁sağlamıştır	-11811
New	-11812
ask	-11813
ias	-11814
ader	-11815
▁Rand	-11816
▁Prodük	-11817
▁devletler	-11818
Re	-11819
sian	-11820
▁Vamp	-11821
Th	-11822
akt	-11823
Fran	-11824
lace	-11825
▁Boh	-11826
▁tutul	-11827
▁bundan	-11828
▁potansiyel	-11829
viv	-11830
▁Walt	-11831
▁mağaz	-11832
▁Bayburt	-11833
▁botanik	-11834
▁yetersiz	-11835
▁iyileştir	-11836
AP	-11837
▁sesi	-11838
▁çatış	-11839
▁sözcüğ	-11840
▁Nitekim	-11841
▁Internet	-11842
▁uzaklığı	-11843
gâh	-11844
sas	-11845
▁Chem	-11846
▁şefi	-11847
▁1987:	-11848
▁Project	-11849
▁olmasını	-11850
LC	-11851
în	-11852
▁Mex	-11853
▁1877	-11854
▁Libr	-11855
▁seyirci	-11856
elal	-11857
▁işi	-11858
eryal	-11859
▁Work	-11860
▁yansıt	-11861
▁Channel	-11862
▁Matthew	-11863
▁geçiren	-11864
▁ülkesinde	-11865
feld	-11866
▁böcek	-11867
▁hangi	-11868
▁zırhlı	-11869
ühr	-11870
şin	-11871
▁CS	-11872
▁Vat	-11873
▁uzmanı	-11874
ль	-11875
▁Over	-11876
▁1965'	-11877
▁vakıf	-11878
▁göçmen	-11879
▁çekirde	-11880
▁bağlıydı	-11881
▁görevleri	-11882
▁üyeliğine	-11883
▁sisteminde	-11884
adaş	-11885
iyorum	-11886
▁Engin	-11887
▁elemeleri	-11888
▁İskandinav	-11889
▁Gam	-11890
▁Ont	-11891
▁1947'	-11892
▁açtığı	-11893
▁konumu	-11894
▁sahneye	-11895
▁paylaştığı	-11896
Bar	-11897
▁Cli	-11898
maması	-11899
▁1952'	-11900
▁takvimi	-11901
şif	-11902
sell	-11903
▁ışın	-11904
▁Konak	-11905
▁Turan	-11906
▁arşivi	-11907
▁döneminden	-11908
▁Nu	-11909
desi	-11910
▁alet	-11911
üsünde	-11912
▁kapsar	-11913
▁Arsenal	-11914
▁direniş	-11915
▁saldırısı	-11916
ıman	-11917
▁pir	-11918
utsch	-11919
▁emir	-11920
▁1938'	-11921
▁Hikmet	-11922
isconsin	-11923
▁Fildişi	-11924
▁Artistik	-11925
▁Napolyon	-11926
▁Wrestling	-11927
▁alışveriş	-11928
Te	-11929
lers	-11930
ress	-11931
▁Solo	-11932
▁Veli	-11933
▁Stalin	-11934
▁göller	-11935
▁geçerli	-11936
ик	-11937
▁Rel	-11938
▁Kansas	-11939
▁Liberal	-11940
▁liberal	-11941
▁Komutanı	-11942
imer	-11943
▁Lil	-11944
▁evi	-11945
▁Sivil	-11946
▁alınmış	-11947
▁Özgürlük	-11948
▁Institute	-11949
▁bulunuyor	-11950
aliz	-11951
▁Paz	-11952
▁Aviv	-11953
▁çelik	-11954
▁Erediv	-11955
▁yargılan	-11956
▁karikatür	-11957
▁Teh	-11958
▁bran	-11959
▁folk	-11960
▁Abdul	-11961
▁Sarık	-11962
▁meşhur	-11963
▁yıldızı	-11964
▁İttifak	-11965
▁Kaş	-11966
izona	-11967
▁Dalı	-11968
▁Main	-11969
Holstein	-11970
▁Prenses	-11971
▁başlayıp	-11972
▁doktorasını	-11973
▁gec	-11974
dırma	-11975
▁Inde	-11976
▁aldıktan	-11977
▁Tennessee	-11978
name	-11979
▁Hoca	-11980
▁sattı	-11981
▁Birkaç	-11982
oud	-11983
asus	-11984
egori	-11985
▁Kuz	-11986
▁%1,2	-11987
▁cephe	-11988
▁harekâ	-11989
▁kanseri	-11990
▁memeliler	-11991
iny	-11992
rus	-11993
▁72	-11994
▁elen	-11995
League	-11996
▁İklim	-11997
▁pornografik	-11998
erse	-11999
▁250	-12000
▁Fut	-12001
▁Sep	-12002
ampton	-12003
▁2015:	-12004
▁Göztepe	-12005
▁baskısı	-12006
▁Singapur	-12007
▁çocuklar	-12008
▁tanıtımları	-12009
▁58	-12010
▁1903	-12011
▁kere	-12012
▁olmay	-12013
▁numarası	-12014
▁İncelenmemiş	-12015
esa	-12016
mağı	-12017
▁Hok	-12018
▁belge	-12019
▁pozitif	-12020
▁ilişkilendir	-12021
▁Ata	-12022
▁Bahr	-12023
▁Yayım	-12024
▁Yapımcısı	-12025
​​	-12026
▁В	-12027
aşır	-12028
▁Connect	-12029
▁dışişleri	-12030
OR	-12031
▁fel	-12032
lotte	-12033
▁tedavisi	-12034
▁BK	-12035
▁Cé	-12036
sever	-12037
▁spekt	-12038
▁başlay	-12039
▁Eredivisie	-12040
▁Kırklareli	-12041
▁imparatorluk	-12042
▁Inf	-12043
-2004	-12044
hattan	-12045
▁Burak	-12046
▁Karar	-12047
▁(2020)	-12048
May	-12049
nit	-12050
▁marş	-12051
▁müşter	-12052
▁güneydoğu	-12053
Büyük	-12054
▁Blan	-12055
▁ettiğini	-12056
anne	-12057
kapı	-12058
▁Cos	-12059
▁alıp	-12060
▁Review	-12061
▁meclisi	-12062
▁8 	-12063
▁Dah	-12064
▁Tet	-12065
▁riv	-12066
abilim	-12067
▁%0,6'	-12068
▁Hafta	-12069
▁Çoğun	-12070
▁grupta	-12071
▁Publish	-12072
▁olimpiyat	-12073
▁ressamlar	-12074
▁olmasından	-12075
▁belirlenmiştir	-12076
▁kaldırılmıştır	-12077
him	-12078
▁Kok	-12079
▁Tob	-12080
takım	-12081
▁Jordan	-12082
▁girişi	-12083
▁Beyoğlu	-12084
▁yazıldı	-12085
▁şiddetli	-12086
âb	-12087
ska	-12088
sını	-12089
▁hek	-12090
▁Bruce	-12091
▁kaydı	-12092
▁herkes	-12093
Pet	-12094
▁KB	-12095
▁Muk	-12096
▁Wars	-12097
▁atmos	-12098
▁Wisconsin	-12099
▁Kost	-12100
▁deyiş	-12101
▁miras	-12102
▁Çince	-12103
▁çalgı	-12104
▁Yapımcı	-12105
▁Bakanlar	-12106
▁dergisinin	-12107
▁Va	-12108
atus	-12109
▁12 	-12110
▁Hud	-12111
anmış	-12112
▁Tümeni	-12113
▁federal	-12114
▁yaralan	-12115
ML	-12116
▁RC	-12117
Avus	-12118
sten	-12119
razam	-12120
▁What	-12121
▁Anayas	-12122
▁tescil	-12123
▁kasabalar	-12124
▁Fan	-12125
▁Blood	-12126
▁Valisi	-12127
▁Central	-12128
Mart	-12129
▁denem	-12130
▁çekim	-12131
▁tamamladıktan	-12132
mont	-12133
▁Anıt	-12134
▁Shin	-12135
▁döner	-12136
▁hayır	-12137
▁Mektebi	-12138
▁imparatoru	-12139
▁tanımlamak	-12140
oln	-12141
▁(1.	-12142
▁ikl	-12143
▁Utah	-12144
▁oyuna	-12145
▁(1982)	-12146
▁Awards	-12147
▁Hürriyet	-12148
▁Otomobil	-12149
▁kuzeybatı	-12150
▁Milliyetçi	-12151
▁Hristiyanlık	-12152
▁1949'	-12153
▁maliyet	-12154
▁karşılıklı	-12155
alk	-12156
▁56	-12157
▁GN	-12158
▁Mast	-12159
▁Ankarag	-12160
▁etkiler	-12161
▁geçirmiştir	-12162
şun	-12163
▁Alab	-12164
▁%33,0	-12165
▁cevap	-12166
imlerde	-12167
▁yangın	-12168
▁Federasyon	-12169
nus	-12170
▁Çar	-12171
▁ilçeye	-12172
▁(26	-12173
▁Ayı	-12174
▁%64,0	-12175
▁duygu	-12176
▁Çoban	-12177
▁frekans	-12178
▁Yayınevi	-12179
▁üretildi	-12180
pel	-12181
sın	-12182
▁Gey	-12183
▁şiş	-12184
elikopter	-12185
▁bitirmiştir	-12186
yani	-12187
▁Nep	-12188
▁Olu	-12189
dülüs	-12190
▁Forum	-12191
▁kuyruk	-12192
▁madalyanın	-12193
Ab	-12194
EM	-12195
ija	-12196
▁Yön	-12197
▁Mess	-12198
▁tatil	-12199
▁eğitimine	-12200
AD	-12201
Son	-12202
▁Map	-12203
▁tün	-12204
▁Fame	-12205
▁Ross	-12206
▁(1983)	-12207
▁Ajansı	-12208
▁yağmur	-12209
anlarını	-12210
▁arkasında	-12211
mb	-12212
leg	-12213
head	-12214
▁konuşan	-12215
▁tanınmıştır	-12216
uge	-12217
▁Ayv	-12218
▁Dum	-12219
▁Aster	-12220
anlığın	-12221
▁tahrir	-12222
ülebilir	-12223
▁Dizinin	-12224
▁tasarlanan	-12225
▁Wa	-12226
luluk	-12227
▁Kosta	-12228
▁çevresindeki	-12229
not	-12230
âri	-12231
▁Para	-12232
▁dükk	-12233
▁1993:	-12234
▁Earth	-12235
▁Dizisi	-12236
▁Ankaragücü	-12237
▁41	-12238
▁2.0	-12239
▁Aur	-12240
▁Meb	-12241
▁Pok	-12242
▁Thor	-12243
ilmişti	-12244
▁Family	-12245
▁demektir	-12246
▁metredir	-12247
▁Başkanlık	-12248
▁havalimanı	-12249
▁mahallenin	-12250
ıh	-12251
▁yeğ	-12252
▁Ziya	-12253
▁Oyunun	-12254
▁bakter	-12255
TR	-12256
▁1954'	-12257
▁Körfez	-12258
▁Magaz	-12259
▁devred	-12260
lamenter	-12261
▁Linnaeus	-12262
▁kaldırıldı	-12263
▁}	-12264
▁Madonna	-12265
otosiklet	-12266
▁gösterilir	-12267
▁hükümdarları	-12268
▁havz	-12269
▁slog	-12270
▁Karşı	-12271
▁Sabah	-12272
eygamber	-12273
Hay	-12274
▁Cep	-12275
▁Manga	-12276
▁Sahne	-12277
▁mesle	-12278
▁Gri	-12279
▁1899	-12280
▁Akça	-12281
▁işler	-12282
▁sanay	-12283
▁sunulan	-12284
▁örnekler	-12285
▁dönemlerinde	-12286
▁Nijeryalı	-12287
▁Yahudileri	-12288
▁Pom	-12289
▁Aires	-12290
▁rayon	-12291
▁kümesi	-12292
▁mineral	-12293
▁Anderson	-12294
fr	-12295
▁Guang	-12296
▁buzul	-12297
▁maden	-12298
▁süreçte	-12299
▁Demiryolu	-12300
▁Demokrasi	-12301
▁lev	-12302
eğini	-12303
▁Balk	-12304
▁Mine	-12305
▁Sami	-12306
▁yıldan	-12307
▁sürülen	-12308
▁belirtir	-12309
▁bağlantısı	-12310
▁Büyükelçisi	-12311
tro	-12312
▁kabine	-12313
▁Hastalık	-12314
▁gönderdi	-12315
▁Manastırı	-12316
▁danışmanı	-12317
▁kadınların	-12318
▁AG	-12319
Miss	-12320
▁Poly	-12321
▁zemin	-12322
▁Müziği	-12323
▁değildi	-12324
▁Yüksekokulu	-12325
afir	-12326
ards	-12327
▁Fet	-12328
amerik	-12329
▁Kurum	-12330
ozisyon	-12331
ropikal	-12332
▁Gökhan	-12333
▁vererek	-12334
▁klasmanı	-12335
Ad	-12336
–1	-12337
unç	-12338
▁53	-12339
▁Europ	-12340
▁Barajı	-12341
▁Endülüs	-12342
▁düzenlediği	-12343
aton	-12344
levi	-12345
ektif	-12346
▁klavye	-12347
▁engelli	-12348
▁Bilimsel	-12349
▁dakikada	-12350
▁takımdan	-12351
▁Manhattan	-12352
▁Nav	-12353
▁avcı	-12354
▁Giriş	-12355
raç	-12356
çuk	-12357
▁Cad	-12358
▁kodu	-12359
▁üzüm	-12360
▁adalet	-12361
▁Arizona	-12362
▁Ermenice	-12363
▁cezasına	-12364
iks	-12365
ally	-12366
▁Lav	-12367
▁hom	-12368
▁More	-12369
▁açan	-12370
▁Marks	-12371
▁rekabet	-12372
▁Demirspor	-12373
▁hayvancılık	-12374
▁sürdürmüştür	-12375
▁karşılaşmaları	-12376
cili	-12377
▁çöl	-12378
anlığa	-12379
▁Billy	-12380
▁Ludwig	-12381
▁Detroit	-12382
||4	-12383
cess	-12384
▁doçent	-12385
▁olmayı	-12386
▁onunla	-12387
▁uyumlu	-12388
▁değiştirdi	-12389
▁yaşamıştır	-12390
inos	-12391
▁bayr	-12392
▁Şeref	-12393
▁Dağlık	-12394
▁oluşturul	-12395
SM	-12396
▁Ertuğ	-12397
▁Jimmy	-12398
▁aşkın	-12399
▁rakım	-12400
▁tanımlanır	-12401
▁Başbakanlık	-12402
▁Bayanlar	-12403
▁Geb	-12404
▁ord	-12405
▁mali	-12406
▁kamer	-12407
▁yeter	-12408
▁ilerleyen	-12409
asy	-12410
▁be	-12411
▁Leb	-12412
▁gruptan	-12413
▁67	-12414
▁Mé	-12415
eron	-12416
ıçak	-12417
▁BAL	-12418
▁Umut	-12419
▁istik	-12420
▁Trakya	-12421
▁töreni	-12422
▁kullanmıştır	-12423
▁far	-12424
▁coğrafya	-12425
▁sekreteri	-12426
Ben	-12427
apa	-12428
▁doğmuş	-12429
ılmasından	-12430
▁Stu	-12431
▁çalın	-12432
▁Petrol	-12433
▁Bireysel	-12434
▁Rekorlar	-12435
star	-12436
▁Buenos	-12437
▁uzanır	-12438
▁mimarlık	-12439
ahmet	-12440
▁Like	-12441
▁tayin	-12442
▁anlaşması	-12443
-197	-12444
▁Two	-12445
demik	-12446
earch	-12447
▁yüzü	-12448
▁parçacık	-12449
under	-12450
▁Avcı	-12451
▁Hugh	-12452
iliyor	-12453
▁Halen	-12454
▁çağır	-12455
▁Görüntü	-12456
▁uyarlanmış	-12457
nd	-12458
▁Juv	-12459
▁Klip	-12460
▁hanede	-12461
▁devleti	-12462
▁dikkate	-12463
▁milyondan	-12464
▁yemekleri	-12465
elia	-12466
▁Sit	-12467
▁Won	-12468
eksin	-12469
öğren	-12470
▁Rady	-12471
▁(1980)	-12472
▁imalat	-12473
▁Bağlantılar	-12474
eve	-12475
▁Abb	-12476
▁itir	-12477
▁Şırnak	-12478
▁yolculuk	-12479
▁XI	-12480
▁batıda	-12481
▁Barbara	-12482
▁Transfer	-12483
▁ilişkisi	-12484
▁yazarıdır	-12485
şek	-12486
▁Midd	-12487
anlısı	-12488
▁Mevcut	-12489
▁başkanlığına	-12490
suzluk	-12491
▁Space	-12492
▁yansı	-12493
▁Frances	-12494
▁Hamilton	-12495
▁Katedral	-12496
▁komedyen	-12497
▁Bağımsızlık	-12498
EK	-12499
VA	-12500
cül	-12501
ote	-12502
▁Til	-12503
▁Güler	-12504
▁organik	-12505
▁nö	-12506
ğdır	-12507
▁Stad	-12508
▁Hatun	-12509
▁eşcinsel	-12510
▁tarihçiler	-12511
-2015	-12512
andarma	-12513
▁sayıları	-12514
▁felsefesi	-12515
▁Köş	-12516
▁Swe	-12517
▁Vez	-12518
lines	-12519
usunu	-12520
▁Geliş	-12521
▁Stefan	-12522
▁değişir	-12523
tih	-12524
ürn	-12525
▁türk	-12526
▁Brüksel	-12527
▁ekipman	-12528
▁oynadıktan	-12529
İl	-12530
-24	-12531
right	-12532
▁Luci	-12533
itleri	-12534
▁Kürtçe	-12535
▁Ost	-12536
▁Riz	-12537
▁roket	-12538
▁yürüyüş	-12539
▁Müsabaka	-12540
▁Programı	-12541
▁Türkçede	-12542
▁Yokohama	-12543
▁resimler	-12544
▁kazasının	-12545
▁9,	-12546
▁​​	-12547
▁Dave	-12548
▁Türkü	-12549
▁artış	-12550
▁büyüklük	-12551
▁karanlık	-12552
▁Müslümanlar	-12553
0),	-12554
hrac	-12555
▁Alice	-12556
▁girer	-12557
▁partisi	-12558
ûrî	-12559
▁1885	-12560
▁Lise	-12561
▁Ozan	-12562
▁ofis	-12563
▁isimdir	-12564
▁diğerleri	-12565
▁kendilerine	-12566
▁milletvekilidir	-12567
ON	-12568
cul	-12569
atem	-12570
▁değişim	-12571
▁Genelkurmay	-12572
hai	-12573
▁Yi	-12574
▁İbn	-12575
Macar	-12576
ındık	-12577
▁Free	-12578
▁Test	-12579
▁kanserden	-12580
▁kulübüdür	-12581
atre	-12582
andalı	-12583
▁listede	-12584
▁topluluğ	-12585
▁örnekleri	-12586
▁Б	-12587
00 	-12588
▁77	-12589
▁cezası	-12590
▁familya	-12591
Sır	-12592
agon	-12593
▁(1981)	-12594
▁Office	-12595
EB	-12596
▁Č	-12597
pag	-12598
▁TFF	-12599
▁Tag	-12600
▁suçlu	-12601
▁Okyanus	-12602
▁klasman	-12603
▁birbirinden	-12604
▁oluşturulmuştur	-12605
sv	-12606
bine	-12607
gion	-12608
▁müttefik	-12609
▁sürülmüştür	-12610
▁yayınladığı	-12611
TT	-12612
uhan	-12613
ıplak	-12614
▁mezhe	-12615
anlarına	-12616
▁binalar	-12617
▁Cumhuriyetçi	-12618
▁vatandaşları	-12619
▁Aer	-12620
ative	-12621
üller	-12622
▁From	-12623
▁dedi	-12624
▁1996:	-12625
▁kaplı	-12626
▁mayın	-12627
▁alanına	-12628
emy	-12629
▁6:	-12630
▁7 	-12631
▁Digital	-12632
▁vatandaşı	-12633
  	-12634
▁Fis	-12635
▁Şef	-12636
▁Born	-12637
▁kurumu	-12638
▁yayıncı	-12639
▁yazında	-12640
▁pandemisi	-12641
ugu	-12642
▁74	-12643
alın	-12644
▁inc	-12645
▁salg	-12646
angers	-12647
▁görmüş	-12648
▁Oyunculuk	-12649
▁Buckingham	-12650
▁Buc	-12651
urken	-12652
▁Lind	-12653
▁Çalış	-12654
▁Boğazı	-12655
▁işleme	-12656
▁geçtiği	-12657
▁laboratuvar	-12658
eçi	-12659
yazı	-12660
▁Sezen	-12661
▁Water	-12662
▁sevgil	-12663
▁Siyaset	-12664
▁gelenek	-12665
▁kişiliği	-12666
▁Java	-12667
▁bitiren	-12668
ops	-12669
▁Dram	-12670
▁Ontario	-12671
▁asistan	-12672
▁Nevşehir	-12673
▁Standart	-12674
▁1976:	-12675
▁atlama	-12676
▁karşılığı	-12677
▁TC	-12678
tına	-12679
▁Ever	-12680
▁devir	-12681
▁kazasına	-12682
▁belirtilmiştir	-12683
erto	-12684
▁Hazar	-12685
▁Songs	-12686
▁rapçi	-12687
▁şekilleri	-12688
EP	-12689
▁Amazon	-12690
▁çoğunu	-12691
▁Athletic	-12692
▁uygulanan	-12693
▁derecesini	-12694
▁şirketinin	-12695
▁GP	-12696
uver	-12697
▁saygı	-12698
▁temas	-12699
▁doğduğu	-12700
▁yüzölçümü	-12701
▁adlandırıldı	-12702
elekt	-12703
▁Alayı	-12704
▁taşıy	-12705
ağından	-12706
▁çıkarak	-12707
▁Organizasyon	-12708
NET	-12709
cle	-12710
▁Eh	-12711
▁Lac	-12712
ipzig	-12713
▁piyade	-12714
▁yaratı	-12715
▁katılır	-12716
▁tanıtıldı	-12717
▁neticesinde	-12718
nie	-12719
enix	-12720
icut	-12721
antes	-12722
erton	-12723
▁şansı	-12724
▁Repesaj	-12725
▁kadının	-12726
▁yapının	-12727
▁yolc	-12728
▁adalar	-12729
▁takdir	-12730
▁binlerce	-12731
▁deplasman	-12732
▁yaptıktan	-12733
Dan	-12734
▁pik	-12735
▁Aman	-12736
▁Sait	-12737
▁1933'	-12738
▁şehrine	-12739
▁Özer	-12740
▁ömür	-12741
▁farkı	-12742
▁Freder	-12743
▁maksimum	-12744
Sc	-12745
▁1-0	-12746
▁Dre	-12747
▁Öykü	-12748
▁Union	-12749
▁Valent	-12750
▁kurtul	-12751
▁organı	-12752
▁üretilmiştir	-12753
▁IC	-12754
▁sil	-12755
▁Kazım	-12756
▁metraj	-12757
▁tekerl	-12758
▁Nacional	-12759
▁biyolojik	-12760
▁18 	-12761
▁Sefer	-12762
▁stadyumlar	-12763
baz	-12764
aron	-12765
▁Kuy	-12766
▁Saç	-12767
▁eğer	-12768
▁1995:	-12769
▁Simpson	-12770
▁grubunda	-12771
cz	-12772
▁zih	-12773
▁Ürün	-12774
▁örgütü	-12775
▁Telekom	-12776
▁filmdir	-12777
▁yapıları	-12778
▁Osmanlıca	-12779
▁nedenlerden	-12780
▁360	-12781
amaya	-12782
▁Esen	-12783
▁aşık	-12784
▁kuram	-12785
ucuları	-12786
▁Forest	-12787
▁Global	-12788
▁anahtar	-12789
▁kasabadır	-12790
agi	-12791
▁(13	-12792
▁Şem	-12793
ramvay	-12794
▁1953'	-12795
▁Leyla	-12796
▁yazan	-12797
▁Library	-12798
▁Türkleri	-12799
▁kilisenin	-12800
▁Zo	-12801
uhaf	-12802
▁Ted	-12803
üzgar	-12804
▁Bunu	-12805
▁kare	-12806
erburg	-12807
▁posta	-12808
▁içinden	-12809
▁süredir	-12810
▁16,	-12811
▁Bog	-12812
▁Hic	-12813
müzik	-12814
▁tüfek	-12815
Gürcüce	-12816
▁Erivan	-12817
▁kaptan	-12818
▁başlığı	-12819
▁planlanan	-12820
ll	-12821
-07	-12822
uro	-12823
şev	-12824
▁Vur	-12825
oksul	-12826
▁dinî	-12827
▁kapak	-12828
▁soyadları	-12829
▁çor	-12830
▁Ülkenin	-12831
▁öldürül	-12832
risi	-12833
▁1864	-12834
▁Cumb	-12835
▁Gamb	-12836
▁malzeme	-12837
▁çıkarıldı	-12838
▁koyun	-12839
▁Burhan	-12840
▁aşamasında	-12841
EA	-12842
▁Wy	-12843
▁vez	-12844
▁Cilt	-12845
sizlik	-12846
▁ayırt	-12847
▁Bartın	-12848
▁Commun	-12849
▁Lawrence	-12850
▁Ülkelerine	-12851
▁Şeb	-12852
▁bulmak	-12853
▁Okulunda	-12854
▁kasabası	-12855
▁dokuzuncu	-12856
gate	-12857
stra	-12858
▁miz	-12859
▁Seni	-12860
▁1936'	-12861
▁kelimesinden	-12862
atar	-12863
▁Arist	-12864
▁maçın	-12865
▁Deresi	-12866
▁Makedon	-12867
▁adaları	-12868
▁futbola	-12869
▁muhabir	-12870
▁Brooklyn	-12871
▁farklıdır	-12872
▁Sung	-12873
▁1921'	-12874
▁Guide	-12875
▁yayına	-12876
▁profile	-12877
▁tarihçileri	-12878
Öz	-12879
elo	-12880
seç	-12881
tes	-12882
▁50 	-12883
leksi	-12884
▁Bazen	-12885
▁Fatma	-12886
▁Köyde	-12887
▁mekanik	-12888
öp	-12889
maç	-12890
eğmen	-12891
▁Edin	-12892
▁Kate	-12893
▁Teor	-12894
▁Baltık	-12895
uti	-12896
Port	-12897
–199	-12898
▁nesne	-12899
▁adındaki	-12900
▁verileri	-12901
dor	-12902
▁destekleyen	-12903
OK	-12904
bos	-12905
▁HP	-12906
▁tüzel	-12907
▁İsmet	-12908
▁bugüne	-12909
ılıyordu	-12910
▁algorit	-12911
şir	-12912
▁Zh	-12913
▁Ümit	-12914
▁hatları	-12915
▁Görevleri	-12916
▁kaynaklı	-12917
▁muhalefet	-12918
ğday	-12919
▁Mülk	-12920
▁kıta	-12921
▁Magic	-12922
▁Konsey	-12923
▁yasama	-12924
▁yaşına	-12925
▁nispeten	-12926
ipe	-12927
isan	-12928
▁Ima	-12929
▁taç	-12930
▁Speci	-12931
▁Santos	-12932
▁peynir	-12933
▁yazısı	-12934
▁yaklaşım	-12935
sub	-12936
şın	-12937
inda	-12938
ımsı	-12939
▁siv	-12940
mekle	-12941
▁illeri	-12942
▁çerçevesinde	-12943
▁bant	-12944
▁Again	-12945
▁yaşay	-12946
▁Donald	-12947
▁Sayılı	-12948
▁tasarımcı	-12949
nos	-12950
▁fot	-12951
elson	-12952
incoln	-12953
▁Movie	-12954
▁kimyager	-12955
▁sonlarına	-12956
▁Wi	-12957
▁hır	-12958
jderha	-12959
▁class	-12960
▁nehri	-12961
▁etmeyi	-12962
▁Edition	-12963
▁Muhafız	-12964
▁Teşkilatı	-12965
▁olmasıdır	-12966
diye	-12967
imde	-12968
ridg	-12969
enberg	-12970
▁buhar	-12971
▁(2021)	-12972
▁Academy	-12973
▁görevlerini	-12974
eyh	-12975
Yeni	-12976
uter	-12977
lahoma	-12978
lispor	-12979
▁Adven	-12980
▁izlen	-12981
▁diğeri	-12982
▁Seattle	-12983
▁Etiyopya	-12984
▁kiliseler	-12985
ptom	-12986
▁Att	-12987
▁Beg	-12988
▁çif	-12989
▁unut	-12990
▁Marcus	-12991
▁2014-15	-12992
▁cinsidir	-12993
▁siteleri	-12994
nel	-12995
opol	-12996
pres	-12997
▁VIII	-12998
▁maddi	-12999
▁Halter	-13000
▁Sardin	-13001
▁mevsim	-13002
▁çarptır	-13003
▁açıklama	-13004
▁üretilmiş	-13005
ünik	-13006
▁2016:	-13007
▁Break	-13008
▁tepki	-13009
▁yanıt	-13010
▁Şişli	-13011
▁?	-13012
gov	-13013
▁35 	-13014
▁40 	-13015
▁saltan	-13016
anlarında	-13017
Yunanistan	-13018
▁Ž	-13019
eğine	-13020
organ	-13021
▁köle	-13022
abildi	-13023
eliyat	-13024
▁1937'	-13025
▁Serdar	-13026
▁die	-13027
▁gram	-13028
▁komuta	-13029
▁önlemek	-13030
▁şarkısını	-13031
▁sanatçının	-13032
▁Sık	-13033
▁Albay	-13034
▁Queens	-13035
▁başlık	-13036
▁anlaştı	-13037
▁kulübün	-13038
▁kapasitesi	-13039
▁Kurallarına	-13040
haf	-13041
▁Acı	-13042
▁darb	-13043
ingrad	-13044
▁perde	-13045
▁yazıt	-13046
▁Fabrik	-13047
▁Göktürk	-13048
▁Sicilya	-13049
atay	-13050
illo	-13051
▁Tuva	-13052
▁Woman	-13053
▁Justin	-13054
▁Series	-13055
▁olurken	-13056
▁Şövalye	-13057
▁finaller	-13058
çer	-13059
▁mod	-13060
▁değin	-13061
▁oyunda	-13062
▁bulunmamaktadır	-13063
Aş	-13064
eçen	-13065
okim	-13066
▁yamaç	-13067
▁Danıştay	-13068
enza	-13069
▁lok	-13070
-2005	-13071
▁kims	-13072
▁finali	-13073
liyö	-13074
▁1994:	-13075
▁oranda	-13076
imnastik	-13077
▁Ferrari	-13078
▁Satranç	-13079
▁kavramı	-13080
▁küç	-13081
▁dağı	-13082
▁Moore	-13083
▁yörüng	-13084
▁Marshall	-13085
▁Osmaniye	-13086
▁Melbourne	-13087
tura	-13088
▁Him	-13089
▁Lüt	-13090
lubiyet	-13091
▁Janeiro	-13092
▁tanıtım	-13093
roc	-13094
▁öt	-13095
ezid	-13096
ères	-13097
▁Fur	-13098
▁ISO	-13099
▁Glen	-13100
▁Karac	-13101
▁Johnny	-13102
▁Yalçın	-13103
▁Zincir	-13104
▁dondur	-13105
▁Broadway	-13106
▁mesafede	-13107
▁hastanede	-13108
▁kuzeydoğu	-13109
inç	-13110
shi	-13111
irit	-13112
▁Stephan	-13113
▁oluşturulmuş	-13114
▁yardımcılığı	-13115
▁sağlamaktadır	-13116
▁th	-13117
iret	-13118
iten	-13119
▁Gib	-13120
▁Yurdu	-13121
▁Mihail	-13122
▁yayını	-13123
▁kolayca	-13124
▁aktivist	-13125
EF	-13126
▁85	-13127
▁CN	-13128
hang	-13129
▁arz	-13130
ettin	-13131
▁1898	-13132
▁Timur	-13133
▁pembe	-13134
▁kitabın	-13135
▁İdaresi	-13136
▁geldiğinde	-13137
▁uyuşturucu	-13138
▁AV	-13139
▁kuşu	-13140
▁İzmit	-13141
▁depolama	-13142
tivo	-13143
▁Sag	-13144
▁Pedro	-13145
▁deneme	-13146
▁Ertuğrul	-13147
▁çikolata	-13148
diz	-13149
evî	-13150
▁kimi	-13151
▁soyu	-13152
▁kitle	-13153
▁2019),	-13154
▁keskin	-13155
▁topladı	-13156
▁bölümünün	-13157
▁Vf	-13158
▁enz	-13159
stone	-13160
▁Bina	-13161
▁bilm	-13162
ılığına	-13163
▁Politik	-13164
▁Oklahoma	-13165
▁tarzında	-13166
▁getirilen	-13167
tre	-13168
inli	-13169
oire	-13170
▁Terc	-13171
▁dalg	-13172
▁haft	-13173
▁pres	-13174
▁Bakan	-13175
ahit	-13176
▁Pra	-13177
ische	-13178
▁Said	-13179
▁Uzak	-13180
▁Coupe	-13181
▁Santi	-13182
▁bağır	-13183
▁Çıkış	-13184
▁Guatem	-13185
▁Korece	-13186
▁Taksim	-13187
▁gömüldü	-13188
▁Bakırköy	-13189
▁benzeyen	-13190
▁kategoride	-13191
▁kullanmaktadır	-13192
▁78	-13193
▁UWW	-13194
vator	-13195
▁sanc	-13196
▁turn	-13197
selona	-13198
▁Sport	-13199
örneğin	-13200
▁Torino	-13201
bell	-13202
▁Nin	-13203
affer	-13204
▁1988:	-13205
▁bozul	-13206
▁endemik	-13207
▁bağlayan	-13208
▁bırakmıştır	-13209
▁П	-13210
▁McG	-13211
ıklar	-13212
▁düğüm	-13213
▁Giovan	-13214
▁88	-13215
acın	-13216
icks	-13217
▁ust	-13218
▁1878	-13219
▁1972:	-13220
▁galip	-13221
▁İşler	-13222
▁Morris	-13223
▁eklendi	-13224
▁Kentucky	-13225
▁Oz	-13226
maca	-13227
▁(1978)	-13228
▁Dakota	-13229
▁denklem	-13230
▁kristal	-13231
▁düzenledi	-13232
▁Connecticut	-13233
He	-13234
opot	-13235
▁misyon	-13236
▁Western	-13237
▁Yapılan	-13238
▁avantaj	-13239
▁hanedan	-13240
▁yaşıyordu	-13241
▁Rid	-13242
▁Line	-13243
▁taki	-13244
▁hacmi	-13245
▁(1976)	-13246
▁taşıma	-13247
▁Dayanışma	-13248
Ey	-13249
XT	-13250
eğe	-13251
▁fre	-13252
▁muc	-13253
▁Ağaç	-13254
▁Hero	-13255
▁Junior	-13256
▁fakült	-13257
▁Lincoln	-13258
asyonları	-13259
nett	-13260
▁geriye	-13261
▁kurulması	-13262
▁yayımlanmış	-13263
▁kurucularından	-13264
▁Od	-13265
aria	-13266
izon	-13267
▁olmasıyla	-13268
abel	-13269
erie	-13270
▁ağacı	-13271
▁oluşturuldu	-13272
▁62	-13273
less	-13274
▁Galli	-13275
▁Iğdır	-13276
cilerin	-13277
▁Gökada	-13278
▁mutlak	-13279
▁Yaylası	-13280
▁oldular	-13281
▁Colorado	-13282
MÖ	-13283
▁с	-13284
▁Ind	-13285
demli	-13286
ierra	-13287
▁olası	-13288
eceğini	-13289
▁Ticari	-13290
▁Belgesel	-13291
▁Jonathan	-13292
▁Valiliği	-13293
▁olasılık	-13294
cho	-13295
▁güz	-13296
lerdi	-13297
▁(1979)	-13298
▁haklarını	-13299
▁değiştirilmiş	-13300
oker	-13301
▁975	-13302
▁est	-13303
▁Yasa	-13304
▁harita	-13305
▁oynuyor	-13306
▁Kırıkkale	-13307
▁Yayıncılık	-13308
asu	-13309
▁Yayla	-13310
▁periy	-13311
▁yöneten	-13312
▁tesisleri	-13313
▁başrollerinde	-13314
pol	-13315
aray	-13316
aziz	-13317
▁Kül	-13318
▁Cart	-13319
▁1971:	-13320
▁Yağmur	-13321
▁çalışırken	-13322
AC	-13323
▁FM	-13324
▁Çıl	-13325
▁Benj	-13326
▁Gang	-13327
▁dışına	-13328
▁ödülüne	-13329
▁takımını	-13330
▁oynanmıştır	-13331
▁96	-13332
▁Noel	-13333
omotiv	-13334
▁Warri	-13335
▁Marcel	-13336
▁Viktor	-13337
▁Maçları	-13338
▁anlayış	-13339
▁dünyadaki	-13340
▁Kolombiyalı	-13341
ия	-13342
riği	-13343
enhag	-13344
layer	-13345
▁Iron	-13346
▁tepk	-13347
▁Abdur	-13348
▁Haçlı	-13349
▁öngör	-13350
▁Manuel	-13351
▁rivayet	-13352
▁Yahudisi	-13353
▁otomobilleri	-13354
▁gerekmektedir	-13355
önes	-13356
▁1.0	-13357
▁Hyun	-13358
▁duruma	-13359
▁sürdüren	-13360
▁sunucuları	-13361
▁getirmiştir	-13362
▁gey	-13363
▁vit	-13364
▁vaka	-13365
▁yetenek	-13366
▁Fiziksel	-13367
▁olmasının	-13368
oux	-13369
▁Hakem	-13370
▁Ulaşım	-13371
▁yelken	-13372
▁yöneticileri	-13373
Ağ	-13374
uni	-13375
ebir	-13376
▁Cit	-13377
erber	-13378
▁oynay	-13379
▁öldüğü	-13380
▁görünen	-13381
▁Albümler	-13382
▁Aleksandr	-13383
▁söylemiştir	-13384
mil	-13385
oro	-13386
▁600	-13387
▁Gin	-13388
retti	-13389
▁1951'	-13390
▁Kuveyt	-13391
yab	-13392
▁CEO	-13393
▁Pod	-13394
▁hik	-13395
amond	-13396
annis	-13397
▁Beng	-13398
▁Tıva	-13399
▁icat	-13400
▁1974:	-13401
▁Boris	-13402
▁kişiyi	-13403
▁savaşa	-13404
▁Leipzig	-13405
▁Jennifer	-13406
▁(5)	-13407
▁Hizmetler	-13408
▁başbakanlık	-13409
mid	-13410
anto	-13411
dale	-13412
▁1897	-13413
▁seks	-13414
▁Jerry	-13415
▁katliam	-13416
▁ailesine	-13417
▁kralları	-13418
▁valileri	-13419
▁yuvarlak	-13420
▁yaygındır	-13421
:00	-13422
çıl	-13423
hone	-13424
wart	-13425
▁13 	-13426
▁Adi	-13427
orgun	-13428
ussia	-13429
▁Dallas	-13430
▁düzelt	-13431
kul	-13432
▁UN	-13433
ılığa	-13434
▁Dick	-13435
▁hepsi	-13436
▁Çatal	-13437
▁birinde	-13438
▁gelişimi	-13439
▁müzeleri	-13440
▁direktördür	-13441
▁eng	-13442
mouth	-13443
▁Ders	-13444
▁Nadir	-13445
dörtgen	-13446
▁Challen	-13447
▁yörünge	-13448
▁cihazlar	-13449
▁bulunması	-13450
▁romanlarından	-13451
2-	-13452
▁59	-13453
▁Ple	-13454
▁Viv	-13455
▁Hawai	-13456
▁resep	-13457
▁yardımcıları	-13458
the	-13459
tısı	-13460
▁Nez	-13461
▁hasıl	-13462
▁Kulesi	-13463
="2"|-||	-13464
▁adamları	-13465
▁organizasyonu	-13466
ος	-13467
▁Uni	-13468
liydi	-13469
▁Cuma	-13470
▁Sekiz	-13471
▁besin	-13472
▁kalıp	-13473
▁özeti	-13474
▁1990),	-13475
▁modelleri	-13476
▁evlenmiştir	-13477
▁81	-13478
edim	-13479
▁Suç	-13480
▁damar	-13481
▁İlhan	-13482
▁dağlık	-13483
▁kümesidir	-13484
▁birleşerek	-13485
onc	-13486
alia	-13487
itre	-13488
thers	-13489
▁Rost	-13490
▁Tank	-13491
mekten	-13492
▁sıfır	-13493
ways	-13494
▁Days	-13495
▁Merc	-13496
▁yazmaya	-13497
▁Üzerine	-13498
ekk	-13499
rif	-13500
rüb	-13501
▁DS	-13502
▁Ju	-13503
▁TB	-13504
uzur	-13505
▁log	-13506
üsyon	-13507
▁2020,	-13508
▁sütun	-13509
▁alfabesi	-13510
▁Barselona	-13511
▁kapasiteli	-13512
▁endüstriyel	-13513
▁Syn	-13514
▁materyal	-13515
▁belirtmiştir	-13516
▁liderliğindeki	-13517
▁reng	-13518
▁okyan	-13519
▁Kayser	-13520
amerikan	-13521
▁Yeniden	-13522
▁yürürlüğe	-13523
▁Başkanları	-13524
ippi	-13525
ores	-13526
▁Jes	-13527
▁dan	-13528
▁%0,3	-13529
▁noktada	-13530
▁dilbilim	-13531
▁manyetik	-13532
▁hayatının	-13533
tz	-13534
şim	-13535
▁Ran	-13536
-2002	-13537
▁içeriği	-13538
▁denizaltı	-13539
espe	-13540
▁giyim	-13541
▁Şerif	-13542
▁yakından	-13543
▁yerleşimi	-13544
igo	-13545
ango	-13546
▁110	-13547
▁Deli	-13548
▁Gren	-13549
▁Tart	-13550
lamada	-13551
▁Refah	-13552
▁ölçüm	-13553
▁tarafı	-13554
▁zamanı	-13555
▁grubunu	-13556
▁Kopenhag	-13557
ет	-13558
iana	-13559
nalı	-13560
▁Wel	-13561
▁kimlik	-13562
▁teması	-13563
▁krallığı	-13564
▁kazasında	-13565
leştirilmiş	-13566
!"	-13567
▁Gönül	-13568
▁Vatan	-13569
▁Başlıca	-13570
▁çekişli	-13571
▁Konyaspor	-13572
▁Ulaştırma	-13573
▁destekler	-13574
asıt	-13575
▁Fikret	-13576
▁Cenevre	-13577
▁referans	-13578
▁yazılımı	-13579
▁istasyonudur	-13580
ław	-13581
▁Set	-13582
▁Mind	-13583
▁Canlı	-13584
▁Ramaz	-13585
▁konuda	-13586
▁verimli	-13587
▁silahlar	-13588
▁kanserinden	-13589
▁yürütmüştür	-13590
rog	-13591
won	-13592
▁Gıda	-13593
▁bellek	-13594
▁matematikçi	-13595
uit	-13596
utan	-13597
▁borç	-13598
▁kâşif	-13599
▁termin	-13600
lığından	-13601
▁Altında	-13602
ishi	-13603
lake	-13604
ophy	-13605
▁176	-13606
çiliği	-13607
leşmesi	-13608
▁1992),	-13609
▁Iv	-13610
usuna	-13611
▁Stein	-13612
▁Charlotte	-13613
▁hareketleri	-13614
▁sunulmuştur	-13615
CN	-13616
sie	-13617
urch	-13618
▁Lige	-13619
▁Carey	-13620
▁Gordon	-13621
▁denize	-13622
▁fizikçi	-13623
▁soyundan	-13624
▁hakimiyet	-13625
▁oyuncunun	-13626
▁gerçekleşmiştir	-13627
fri	-13628
▁Conc	-13629
▁anki	-13630
▁dişi	-13631
▁türb	-13632
▁Oliver	-13633
lâm	-13634
anna	-13635
irüs	-13636
▁Baj	-13637
track	-13638
ürler	-13639
▁Grek	-13640
▁Kras	-13641
▁Stra	-13642
▁ikiz	-13643
▁Proje	-13644
▁Spart	-13645
▁stand	-13646
İspanyol	-13647
▁.3	-13648
▁Eki	-13649
achel	-13650
itabanı	-13651
▁Kennedy	-13652
Bul	-13653
sey	-13654
▁Koş	-13655
▁lige	-13656
▁Wayne	-13657
▁Cerrah	-13658
▁zorluk	-13659
▁geliştirdi	-13660
▁Bis	-13661
▁Ges	-13662
matik	-13663
▁kentinin	-13664
bes	-13665
fen	-13666
jet	-13667
imon	-13668
▁Lop	-13669
ories	-13670
▁konak	-13671
▁optik	-13672
▁Turnuva	-13673
▁gelişen	-13674
aph	-13675
sia	-13676
lins	-13677
▁sef	-13678
▁1890	-13679
▁Rest	-13680
▁Vali	-13681
▁1935'	-13682
▁Lizbon	-13683
▁donanım	-13684
▁restore	-13685
▁duyuruldu	-13686
▁kullanıma	-13687
▁belediyesinde	-13688
IP	-13689
allı	-13690
idel	-13691
rest	-13692
▁Büy	-13693
▁meg	-13694
entus	-13695
▁1973:	-13696
▁sentez	-13697
▁öyküsü	-13698
▁kiralandı	-13699
▁turnuvaya	-13700
▁sunmaktadır	-13701
▁genişliğinde	-13702
▁Inst	-13703
▁Bahar	-13704
▁Monte	-13705
Pro	-13706
oir	-13707
▁tems	-13708
▁otorit	-13709
▁Cumbria	-13710
▁görevler	-13711
kuş	-13712
enzo	-13713
▁Iowa	-13714
▁hâlâ	-13715
Se	-13716
laç	-13717
ağıt	-13718
▁Dob	-13719
▁virüs	-13720
▁Seferi	-13721
▁pirinç	-13722
▁Müttefik	-13723
▁jimnastik	-13724
▁konularda	-13725
▁politikası	-13726
▁birbirlerine	-13727
▁ha	-13728
brek	-13729
▁Ağı	-13730
▁(2):	-13731
▁Spar	-13732
rahman	-13733
▁Tarık	-13734
▁(1977)	-13735
▁Emniyet	-13736
▁Phoenix	-13737
▁düşmesi	-13738
▁satılan	-13739
▁taraftar	-13740
mu	-13741
▁SP	-13742
▁me	-13743
▁Ade	-13744
lerindendir	-13745
böl	-13746
kesi	-13747
▁reg	-13748
ference	-13749
▁Serisi	-13750
▁isteği	-13751
▁Sonrasında	-13752
▁à	-13753
▁Ere	-13754
liğiyle	-13755
▁seslendirdiği	-13756
dil	-13757
▁sul	-13758
▁Şar	-13759
eytin	-13760
▁edem	-13761
onneur	-13762
▁Taraf	-13763
▁toplanan	-13764
▁51	-13765
▁IP	-13766
,000	-13767
iliğine	-13768
▁1988),	-13769
▁uğradı	-13770
▁olağanüstü	-13771
▁üyelerinden	-13772
▁çıkarılmıştır	-13773
Can	-13774
lac	-13775
oyv	-13776
ache	-13777
▁Gana	-13778
melerine	-13779
▁Avrupalı	-13780
▁vokaller	-13781
▁sürecinde	-13782
▁Yo	-13783
estan	-13784
zburg	-13785
▁bahs	-13786
▁menz	-13787
▁kaçın	-13788
▁üstüne	-13789
▁açıklığı	-13790
▁olmalıdır	-13791
▁sözleşmesi	-13792
▁п	-13793
sızın	-13794
▁İkiz	-13795
▁Depor	-13796
▁kadem	-13797
▁sitler	-13798
▁düşünülen	-13799
üsk	-13800
likte	-13801
▁sans	-13802
▁1989),	-13803
▁dersler	-13804
ilmesinin	-13805
▁koalisyon	-13806
▁serisidir	-13807
ər	-13808
ка	-13809
▁App	-13810
▁dah	-13811
▁eti	-13812
▁Durumu	-13813
▁tekniği	-13814
▁yerleşik	-13815
▁canlandırmıştır	-13816
bağ	-13817
▁Was	-13818
▁Derb	-13819
▁Dûrî	-13820
▁boğaz	-13821
espeare	-13822
▁Yasası	-13823
▁açıklamıştır	-13824
kir	-13825
▁Bri	-13826
▁Andy	-13827
▁balığı	-13828
▁2008-09	-13829
▁Sancağı	-13830
▁adaylık	-13831
▁tahmini	-13832
▁Şarkılar	-13833
▁Ciz	-13834
▁Anav	-13835
▁Bask	-13836
ciliği	-13837
▁sunul	-13838
▁türün	-13839
▁2020),	-13840
▁Mexico	-13841
▁kurmuş	-13842
▁sanatları	-13843
▁isimlendir	-13844
OC	-13845
▁Ing	-13846
▁Lep	-13847
▁Put	-13848
▁çar	-13849
osaur	-13850
▁şüph	-13851
▁1934'	-13852
ahattin	-13853
▁kesint	-13854
▁akciğer	-13855
▁Margaret	-13856
-30	-13857
▁Kaw	-13858
▁Cook	-13859
▁Zamb	-13860
▁Lucas	-13861
▁hayran	-13862
▁kocası	-13863
▁turunda	-13864
▁sek	-13865
trali	-13866
▁Giovanni	-13867
▁hükûmetinin	-13868
xi	-13869
▁ec	-13870
▁Pri	-13871
ellow	-13872
üvari	-13873
▁Books	-13874
▁branş	-13875
▁sabah	-13876
▁atletizm	-13877
▁Yahudiler	-13878
▁yarışları	-13879
▁öncelikle	-13880
oshi	-13881
▁17 	-13882
▁Suz	-13883
▁für	-13884
▁gev	-13885
miyor	-13886
▁Elen	-13887
▁hali	-13888
▁Üstün	-13889
▁atıldı	-13890
▁gücünü	-13891
▁puanlar	-13892
▁kullanmak	-13893
▁Performans	-13894
▁başarmıştır	-13895
▁Dad	-13896
▁Bert	-13897
▁iniş	-13898
▁Bayern	-13899
▁sürücü	-13900
▁boyunda	-13901
▁Petersburg	-13902
▁seviyesinden	-13903
▁değişiklikler	-13904
ège	-13905
▁Gec	-13906
▁Şans	-13907
▁Antakya	-13908
▁Bolivya	-13909
▁Eyaletin	-13910
▁biyografik	-13911
но	-13912
ants	-13913
omal	-13914
uran	-13915
▁işletme	-13916
▁beslenir	-13917
▁çeşitleri	-13918
▁klor	-13919
▁Divan	-13920
▁bayram	-13921
▁kayalık	-13922
▁yazılır	-13923
▁düzenlem	-13924
▁başlangıc	-13925
bie	-13926
fil	-13927
çuluk	-13928
▁Glor	-13929
▁haric	-13930
▁alacak	-13931
▁barındıran	-13932
▁Raj	-13933
▁1893	-13934
▁Morgan	-13935
▁gittiği	-13936
▁Sporting	-13937
▁bilimler	-13938
▁öğretmenlik	-13939
DS	-13940
-06	-13941
uşa	-13942
▁73	-13943
main	-13944
▁Lem	-13945
isyeni	-13946
rekare	-13947
▁tutar	-13948
▁başvuru	-13949
▁ov	-13950
iman	-13951
▁usta	-13952
▁iktis	-13953
ecekler	-13954
▁medres	-13955
▁Alabama	-13956
▁Türkçesi	-13957
▁Uruguaylı	-13958
RS	-13959
Maç	-13960
▁Bö	-13961
hing	-13962
▁Tod	-13963
▁1889	-13964
▁sanal	-13965
paganda	-13966
▁Artist	-13967
▁besteciler	-13968
:1	-13969
UTC	-13970
afe	-13971
▁1.4	-13972
▁Cün	-13973
▁Tul	-13974
elendi	-13975
▁Harbiye	-13976
▁bilimci	-13977
▁sıkıştır	-13978
▁önemlidir	-13979
▁futbolculuk	-13980
▁yüzölçümüne	-13981
▁topraklarına	-13982
ის	-13983
nen	-13984
▁00	-13985
▁Bayan	-13986
melerini	-13987
▁Benjamin	-13988
▁annesinin	-13989
▁sayımlarına	-13990
▁havalimanları	-13991
▁Afr	-13992
▁Ian	-13993
osman	-13994
▁Lomb	-13995
▁Liter	-13996
▁rahip	-13997
▁çektiği	-13998
▁Anabilim	-13999
▁Sanatları	-14000
▁birincilik	-14001
▁Encyclopedia	-14002
ataş	-14003
▁Cov	-14004
▁soru	-14005
▁1977:	-14006
itasyon	-14007
▁Electron	-14008
▁ibn	-14009
▁rag	-14010
ikalar	-14011
▁(1972)	-14012
▁Oregon	-14013
▁Tevfik	-14014
▁dağlar	-14015
▁getirir	-14016
▁bakanlık	-14017
▁köprüler	-14018
oji	-14019
tig	-14020
üfer	-14021
▁Syl	-14022
renin	-14023
▁Trip	-14024
▁1987),	-14025
▁Website	-14026
▁Maryland	-14027
▁eserinde	-14028
▁sandalye	-14029
▁130	-14030
▁Dükü	-14031
ılacak	-14032
▁Chang	-14033
▁kalem	-14034
elenmiş	-14035
▁1986),	-14036
Off	-14037
▁.5	-14038
▁Lot	-14039
▁Sex	-14040
▁kast	-14041
▁ailesiyle	-14042
▁özelliklerini	-14043
lez	-14044
daha	-14045
kabı	-14046
▁Kot	-14047
▁Yüc	-14048
▁Geri	-14049
akende	-14050
ection	-14051
osunun	-14052
▁Bekir	-14053
▁Konuş	-14054
▁satıldı	-14055
Kan	-14056
mod	-14057
▁69	-14058
unes	-14059
▁1.5	-14060
▁Ass	-14061
▁Zar	-14062
▁Bush	-14063
▁üçgen	-14064
▁mantık	-14065
▁Russell	-14066
▁Şarkısı	-14067
▁tamamlan	-14068
▁telefonu	-14069
▁çekmiştir	-14070
BB	-14071
cht	-14072
▁otuz	-14073
▁şeyi	-14074
▁1990:	-14075
▁sergi	-14076
▁Spring	-14077
▁kazanır	-14078
▁reddetti	-14079
▁Türkistan	-14080
▁kararıyla	-14081
▁Bibliyografya	-14082
esia	-14083
▁adası	-14084
▁Lakers	-14085
▁volkan	-14086
▁katılma	-14087
▁yeraltı	-14088
▁harekete	-14089
▁yaratıcı	-14090
▁milletvekilliği	-14091
Muh	-14092
▁Dy	-14093
▁İy	-14094
ific	-14095
▁Leo	-14096
iliğe	-14097
▁Soph	-14098
▁1985:	-14099
▁stüdy	-14100
▁çoklu	-14101
▁(1973)	-14102
▁Hakkâri	-14103
▁Sardinya	-14104
▁oğulları	-14105
▁mağlubiyet	-14106
burn	-14107
▁33.	-14108
▁çak	-14109
▁Silver	-14110
▁Abdülhamid	-14111
mece	-14112
yapı	-14113
▁vah	-14114
cedes	-14115
▁Party	-14116
▁Marino	-14117
▁eğilim	-14118
▁Arkadaş	-14119
▁bunlardan	-14120
US	-14121
▁Loc	-14122
▁Poz	-14123
▁Boyu	-14124
▁1929'	-14125
▁sıkça	-14126
▁Şeker	-14127
▁Montreal	-14128
▁başarıyla	-14129
öğüt	-14130
beyli	-14131
▁Sean	-14132
▁yoksa	-14133
▁Başarılı	-14134
▁JK	-14135
hale	-14136
eveyn	-14137
Fransa	-14138
▁1984:	-14139
▁Bryan	-14140
▁Günay	-14141
▁Gabriel	-14142
▁Kültürel	-14143
hun	-14144
ilem	-14145
▁Demet	-14146
▁Hekim	-14147
▁Kasab	-14148
▁sipar	-14149
▁Albümü	-14150
▁Öztürk	-14151
▁hanedir	-14152
rekarelik	-14153
▁alanının	-14154
▁telefonlar	-14155
▁İstihbarat	-14156
▁MV	-14157
▁bede	-14158
manuel	-14159
ilmekte	-14160
üsteşar	-14161
▁(1971)	-14162
▁Sakson	-14163
▁direkt	-14164
▁çekimi	-14165
▁görevli	-14166
▁Personel	-14167
▁Salvador	-14168
▁tanımlar	-14169
▁miktarı	-14170
ilmesinden	-14171
acht	-14172
baba	-14173
▁Inv	-14174
stadt	-14175
▁düet	-14176
leşmiş	-14177
mingham	-14178
▁Zeytin	-14179
▁seslendirdi	-14180
▁kus	-14181
endir	-14182
▁1895	-14183
▁Marka	-14184
▁ortağı	-14185
iskoposu	-14186
▁Research	-14187
▁tanrıları	-14188
▁Productions	-14189
▁çalışmalarıyla	-14190
▁Ök	-14191
indedir	-14192
▁Kişiler	-14193
▁dinozor	-14194
▁sembolü	-14195
▁ameliyat	-14196
apt	-14197
▁Tün	-14198
▁Ahit	-14199
▁Planet	-14200
▁Wander	-14201
▁yazılar	-14202
▁kurucuları	-14203
ehan	-14204
▁delik	-14205
▁mekaniz	-14206
▁nüfuslu	-14207
itzer	-14208
▁Beach	-14209
▁Engel	-14210
▁Faruk	-14211
▁Hitit	-14212
▁mekân	-14213
▁(1968)	-14214
▁sırayı	-14215
▁Üretim	-14216
▁Stanley	-14217
▁derleme	-14218
▁European	-14219
▁Magazine	-14220
▁Shakespeare	-14221
▁Araştırmaları	-14222
eno	-14223
ublic	-14224
▁jüri	-14225
▁Özet	-14226
Arjantin	-14227
▁Animasyon	-14228
▁İşbirliği	-14229
▁şekildedir	-14230
▁Ansiklopedisi	-14231
▁uyarlanmıştır	-14232
▁yüksekliğinde	-14233
▁ödüllendirildi	-14234
▁87	-14235
caya	-14236
abeyi	-14237
▁1910'	-14238
▁2017:	-14239
▁Mobil	-14240
▁Perry	-14241
▁Shield	-14242
▁Sincan	-14243
▁uyarınca	-14244
▁verilmiş	-14245
▁Albümdeki	-14246
▁kurulduğu	-14247
▁olduğunda	-14248
-2001	-14249
vando	-14250
▁Mann	-14251
▁ayakta	-14252
▁uçaklar	-14253
▁belirlen	-14254
▁yaralandı	-14255
▁bilmektedir	-14256
▁kolaylaştır	-14257
▁IF	-14258
▁bi	-14259
iyal	-14260
odik	-14261
▁Kesk	-14262
lement	-14263
▁China	-14264
▁heavy	-14265
▁kömür	-14266
▁düşmüştür	-14267
▁bulunabilir	-14268
▁ülkelerinde	-14269
ат	-14270
Ulus	-14271
▁(25	-14272
iyası	-14273
▁Öğretim	-14274
▁görülecek	-14275
▁içeriyordu	-14276
</	-14277
▁Fi	-14278
▁(6)	-14279
▁Nad	-14280
acını	-14281
▁1500	-14282
iyakat	-14283
▁Dergi	-14284
▁Julia	-14285
▁keşfet	-14286
▁kompleks	-14287
▁Our	-14288
▁1992:	-14289
▁Adalı	-14290
▁kaçtı	-14291
▁Database	-14292
▁şarkısıdır	-14293
EE	-14294
UR	-14295
fon	-14296
göz	-14297
▁86	-14298
▁po	-14299
-196	-14300
▁Söy	-14301
andro	-14302
▁Dublin	-14303
▁pencer	-14304
▁2018-19	-14305
▁Airlines	-14306
▁başrollerini	-14307
))	-14308
ahn	-14309
rez	-14310
▁Hiç	-14311
▁Şil	-14312
▁Prva	-14313
▁People	-14314
▁Prensi	-14315
▁işlemci	-14316
▁Tao	-14317
▁Kill	-14318
▁ufak	-14319
▁ucunda	-14320
▁Küresel	-14321
▁Theatre	-14322
▁olmuştu	-14323
▁disiplin	-14324
▁Guatemala	-14325
▁Çoğunlukla	-14326
VB	-14327
oga	-14328
▁Git	-14329
▁pal	-14330
▁şap	-14331
amalı	-14332
▁Sert	-14333
▁1989:	-14334
▁Tarsus	-14335
▁yarısı	-14336
▁solunum	-14337
teg	-14338
▁Tit	-14339
▁ikna	-14340
▁Burun	-14341
▁Kyoto	-14342
▁aşama	-14343
▁omurg	-14344
▁Miguel	-14345
▁savunu	-14346
▁tecrüb	-14347
▁Santiago	-14348
▁dönmüştür	-14349
▁helikopter	-14350
▁motosiklet	-14351
ginç	-14352
ükreş	-14353
▁Sayı	-14354
▁tura	-14355
çeleri	-14356
▁1912'	-14357
▁kiloda	-14358
▁çıkması	-14359
▁etkisiyle	-14360
▁filmindeki	-14361
▁şarkısının	-14362
ms	-14363
avo	-14364
cik	-14365
▁3-1	-14366
▁Ord	-14367
▁Bren	-14368
▁Zürih	-14369
▁kıyısı	-14370
▁sınırında	-14371
▁zamanların	-14372
Af	-14373
▁Nus	-14374
▁Pak	-14375
▁Rov	-14376
▁çiç	-14377
▁karşıt	-14378
▁Başkent	-14379
ünikasyon	-14380
▁Borussia	-14381
▁Harekâtı	-14382
beri	-14383
▁(2.	-14384
▁adanın	-14385
▁kapısı	-14386
▁mükemmel	-14387
▁oyununda	-14388
▁Kuşatması	-14389
▁antlaşmaları	-14390
nuz	-14391
cole	-14392
canlı	-14393
enkul	-14394
▁Efes	-14395
▁alçak	-14396
▁daire	-14397
▁donat	-14398
▁Atlantik	-14399
▁romanından	-14400
▁listelenmiştir	-14401
▁.8	-14402
ılın	-14403
▁(30	-14404
Altın	-14405
üsünü	-14406
▁Maya	-14407
▁düşer	-14408
▁Claudi	-14409
▁güvenli	-14410
▁metrelik	-14411
İK	-14412
▁84	-14413
▁170	-14414
▁Aqu	-14415
evleri	-14416
▁Bolog	-14417
▁(1970)	-14418
▁monarş	-14419
▁Diamond	-14420
▁Jandarma	-14421
▁turnuvanın	-14422
▁bitirdikten	-14423
eing	-14424
iform	-14425
▁Alli	-14426
▁evde	-14427
▁puanı	-14428
▁konuları	-14429
▁düzenlenmiş	-14430
▁gitaristler	-14431
▁yayınlamıştır	-14432
cc	-14433
And	-14434
▁60 	-14435
▁harfi	-14436
▁İleri	-14437
▁Havaalanı	-14438
Pr	-14439
iani	-14440
nica	-14441
değer	-14442
▁Cass	-14443
▁kant	-14444
▁Tacik	-14445
▁Avukat	-14446
▁redded	-14447
▁alırken	-14448
▁başından	-14449
▁kilisesi	-14450
▁başkanıdır	-14451
30'	-14452
ware	-14453
▁17,	-14454
▁gib	-14455
uspor	-14456
▁Ordus	-14457
▁Çamlı	-14458
▁Légion	-14459
▁Hentbol	-14460
▁Kontrol	-14461
▁aydınlat	-14462
aps	-14463
kom	-14464
▁6 	-14465
ibar	-14466
▁Gog	-14467
▁Pert	-14468
▁imkân	-14469
▁Public	-14470
▁rezerv	-14471
▁yapıya	-14472
leveland	-14473
şen	-14474
▁{{	-14475
yang	-14476
ource	-14477
▁2018),	-14478
▁pilotu	-14479
▁Fernando	-14480
ives	-14481
▁Hos	-14482
▁Yuk	-14483
▁Ajax	-14484
▁Fuat	-14485
dığını	-14486
▁yüzme	-14487
▁Mimari	-14488
▁kampanya	-14489
▁eklenmiştir	-14490
ABD	-14491
atra	-14492
ensiz	-14493
▁edici	-14494
▁İkili	-14495
▁Medres	-14496
▁fakülte	-14497
▁başlanan	-14498
▁platformu	-14499
▁kendisinden	-14500
Mer	-14501
ová	-14502
▁CP	-14503
▁Heavy	-14504
▁cümle	-14505
honneur	-14506
önesans	-14507
▁(1975)	-14508
▁Sierra	-14509
▁dayanarak	-14510
Mil	-14511
cay	-14512
▁Row	-14513
▁Week	-14514
▁fayd	-14515
▁riba	-14516
▁Const	-14517
▁Battle	-14518
▁Üyeleri	-14519
▁öğrendi	-14520
▁hidrojen	-14521
▁tanımlanmış	-14522
akos	-14523
▁MKE	-14524
▁Raz	-14525
▁Rüş	-14526
▁1922'	-14527
▁Çınar	-14528
▁(1974)	-14529
▁kurmak	-14530
▁Rangers	-14531
▁izleyic	-14532
▁gazeteleri	-14533
▁Amy	-14534
▁Dyn	-14535
▁sonuc	-14536
▁2021),	-14537
Lat	-14538
▁Ülkü	-14539
▁Pamuk	-14540
▁Bölgenin	-14541
▁bölgeden	-14542
▁Birmingham	-14543
▁3'	-14544
orra	-14545
tric	-14546
▁Bitki	-14547
▁turistik	-14548
▁Üz	-14549
enli	-14550
▁1923'	-14551
▁yatay	-14552
▁Şehit	-14553
▁Summer	-14554
▁araçlar	-14555
▁alınması	-14556
▁sayısının	-14557
icz	-14558
ğim	-14559
▁blu	-14560
▁köt	-14561
▁İht	-14562
▁1834	-14563
▁Ural	-14564
▁aralı	-14565
▁Nelson	-14566
▁atanan	-14567
▁hastalıklar	-14568
ihi	-14569
ablo	-14570
zhou	-14571
▁taşıt	-14572
▁İdman	-14573
▁1991),	-14574
▁kıyasla	-14575
▁çalışmış	-14576
AZ	-14577
gang	-14578
iper	-14579
isha	-14580
oyol	-14581
▁Bac	-14582
▁Vilayet	-14583
▁ayaklanma	-14584
▁hükûmetin	-14585
▁faaliyetlerini	-14586
isin	-14587
iver	-14588
rett	-14589
▁sız	-14590
igori	-14591
▁Glas	-14592
▁Josh	-14593
▁Theod	-14594
▁işken	-14595
asyonal	-14596
▁Atilla	-14597
▁Farklı	-14598
▁enstit	-14599
▁hassas	-14600
▁Abhazya	-14601
▁Galipleri	-14602
▁personeli	-14603
▁tamamlayarak	-14604
▁üniversitede	-14605
▁Düğ	-14606
▁hid	-14607
▁him	-14608
▁kot	-14609
▁Jüri	-14610
▁Mezun	-14611
üya	-14612
▁Çap	-14613
▁Feth	-14614
▁1924'	-14615
▁Texas	-14616
▁1993),	-14617
▁Bükreş	-14618
▁Finans	-14619
▁bilinç	-14620
▁sorunu	-14621
▁Düzenleme	-14622
▁stratejik	-14623
▁alanındaki	-14624
▁geliştiric	-14625
vey	-14626
iminde	-14627
▁Kenya	-14628
▁Tenis	-14629
▁atılan	-14630
▁eskrim	-14631
▁kazası	-14632
▁kullanı	-14633
▁Yönetmeni	-14634
DR	-14635
roz	-14636
▁Ci	-14637
chus	-14638
ione	-14639
▁Pos	-14640
▁1880	-14641
egatif	-14642
▁Yahya	-14643
▁dönüm	-14644
▁İnönü	-14645
▁2007-08	-14646
rio	-14647
▁92	-14648
abol	-14649
alım	-14650
ührer	-14651
▁Barry	-14652
▁Ekran	-14653
▁eklem	-14654
İtalyan	-14655
▁yenilik	-14656
▁programlar	-14657
▁prefektörlüğ	-14658
zbol	-14659
acılar	-14660
▁devri	-14661
▁Sevilla	-14662
▁onuruna	-14663
▁kaldırılan	-14664
▁kaydedilen	-14665
▁Tez	-14666
ences	-14667
orial	-14668
▁Aktif	-14669
▁Katal	-14670
▁kuran	-14671
önetmen	-14672
▁İlgili	-14673
imlerine	-14674
▁toprağa	-14675
diy	-14676
efs	-14677
dara	-14678
stal	-14679
▁Fos	-14680
▁Nig	-14681
iness	-14682
▁Takv	-14683
▁Topçu	-14684
▁olgun	-14685
▁şehre	-14686
lanıyor	-14687
▁muhalif	-14688
▁Deportivo	-14689
▁departman	-14690
▁yayınlanmaya	-14691
ceae	-14692
▁1.2	-14693
▁PKK	-14694
▁Made	-14695
▁sıkı	-14696
opotam	-14697
▁Diplom	-14698
▁şimdiki	-14699
▁Edinburgh	-14700
▁olacağını	-14701
▁şehrindeki	-14702
▁Panamerikan	-14703
▁köylerinden	-14704
▁topraklarında	-14705
▁Dj	-14706
▁|0	-14707
▁Raf	-14708
▁kâr	-14709
öhret	-14710
▁Hayv	-14711
▁Head	-14712
▁Toul	-14713
▁fran	-14714
▁İler	-14715
▁1925'	-14716
▁Ernst	-14717
▁Melek	-14718
▁göğüs	-14719
▁kaymakam	-14720
▁söyleyen	-14721
▁dikkatini	-14722
▁sistemidir	-14723
▁10'	-14724
▁Pow	-14725
▁Sri	-14726
▁sup	-14727
▁golf	-14728
▁şeri	-14729
▁Aston	-14730
▁Mitch	-14731
▁ihraç	-14732
▁konsey	-14733
▁tarihe	-14734
My	-14735
nia	-14736
etli	-14737
ather	-14738
amanın	-14739
▁Konuk	-14740
▁Vegas	-14741
yolları	-14742
▁tanımı	-14743
Amerikan	-14744
▁aşağıda	-14745
▁senatör	-14746
HF	-14747
Ma	-14748
▁Deep	-14749
▁1917'	-14750
▁civar	-14751
▁Austin	-14752
▁ettikten	-14753
▁Antalyaspor	-14754
▁kaybetmiştir	-14755
-)	-14756
izu	-14757
▁(190	-14758
▁tabi	-14759
encere	-14760
▁Knight	-14761
▁antrop	-14762
▁inşası	-14763
Tr	-14764
hor	-14765
▁82	-14766
seud	-14767
unus	-14768
▁Gary	-14769
▁Yenik	-14770
▁Çavuş	-14771
▁Litvan	-14772
▁mermer	-14773
▁kanunla	-14774
▁çalışmak	-14775
▁yönetmenlik	-14776
▁6-	-14777
▁uc	-14778
bran	-14779
omer	-14780
lüler	-14781
▁turb	-14782
▁Şair	-14783
▁akşam	-14784
▁Wright	-14785
erküsyon	-14786
▁entegre	-14787
▁Hükümeti	-14788
CC	-14789
éd	-14790
arius	-14791
ature	-14792
▁Lion	-14793
▁ziyade	-14794
▁kitapta	-14795
▁rekorunu	-14796
▁Kayserispor	-14797
ол	-14798
▁Cih	-14799
▁Haçı	-14800
▁2007,	-14801
▁Melik	-14802
▁sancak	-14803
▁Hristiyanlar	-14804
Be	-14805
▁Т	-14806
dez	-14807
▁79	-14808
▁birç	-14809
▁Mekteb	-14810
▁formül	-14811
▁Kadrosu	-14812
▁parklar	-14813
▁Tarihsel	-14814
▁adaylığı	-14815
▁yoğunlaş	-14816
▁insanlara	-14817
▁konumundadır	-14818
▁vatandaşlığına	-14819
foni	-14820
rafi	-14821
▁Kep	-14822
cunun	-14823
▁Dong	-14824
▁Oğlu	-14825
▁Maden	-14826
▁algıl	-14827
▁Garden	-14828
▁Nükleer	-14829
▁düzensiz	-14830
▁katılmak	-14831
▁güvenliği	-14832
▁(24	-14833
-2016	-14834
erkül	-14835
inson	-14836
▁Cong	-14837
▁planı	-14838
▁Yelken	-14839
▁müdahal	-14840
▁birincil	-14841
Bas	-14842
ayın	-14843
▁nin	-14844
ierre	-14845
siniz	-14846
▁Ters	-14847
▁İsim	-14848
▁vuruş	-14849
▁üyeli	-14850
▁1985),	-14851
▁Kaplan	-14852
▁Madagas	-14853
▁finansal	-14854
▁Cleveland	-14855
▁hazırladığı	-14856
hof	-14857
ults	-14858
▁Neb	-14859
▁Rak	-14860
▁Wim	-14861
ender	-14862
▁Tayy	-14863
▁Dağlar	-14864
▁deneysel	-14865
▁istediği	-14866
▁Christmas	-14867
▁Denizlispor	-14868
bür	-14869
fed	-14870
▁Alev	-14871
▁Orada	-14872
▁günleri	-14873
▁takımla	-14874
▁Müfettiş	-14875
▁sektöründe	-14876
usuz	-14877
▁16 	-14878
aktif	-14879
▁Usta	-14880
▁Tekin	-14881
▁Ramazan	-14882
▁sayılar	-14883
▁yarımada	-14884
▁kentindeki	-14885
AS	-14886
▁61	-14887
▁Tv	-14888
▁Göster	-14889
▁ermiştir	-14890
▁komisyon	-14891
▁madalyası	-14892
Dr	-14893
▁Sug	-14894
▁sik	-14895
ennes	-14896
▁Jess	-14897
▁Europe	-14898
▁co	-14899
▁11,	-14900
▁Hus	-14901
▁1926'	-14902
▁10.000	-14903
eteriner	-14904
▁buluntu	-14905
▁cinsine	-14906
▁Çankaya	-14907
▁reseptör	-14908
▁müzikleri	-14909
SSSF	-14910
aran	-14911
▁Esp	-14912
▁Gra	-14913
▁kilo	-14914
▁pröm	-14915
▁Erkan	-14916
▁Rossiy	-14917
▁kamyon	-14918
▁sonsuz	-14919
▁Kamerun	-14920
▁Trin	-14921
▁ilki	-14922
▁istih	-14923
▁1994),	-14924
▁ülkeyi	-14925
▁girişimi	-14926
▁Arkeoloji	-14927
▁Kürdistan	-14928
more	-14929
▁Coş	-14930
▁koc	-14931
assal	-14932
▁blog	-14933
▁dilde	-14934
▁önemi	-14935
▁şahıs	-14936
▁boşluk	-14937
▁karşılaşma	-14938
▁Fay	-14939
▁Afro	-14940
▁KKTC	-14941
▁Lock	-14942
▁fikr	-14943
lılığı	-14944
▁2005,	-14945
▁Sokak	-14946
▁seçti	-14947
▁Cenazesi	-14948
▁doğanlar	-14949
▁numaradan	-14950
▁и	-14951
eber	-14952
ours	-14953
time	-14954
▁Tepe	-14955
▁About	-14956
▁Irmak	-14957
▁kurgu	-14958
iliğini	-14959
▁benims	-14960
▁Rizespor	-14961
cra	-14962
odu	-14963
sha	-14964
tij	-14965
▁Cher	-14966
▁Kura	-14967
couver	-14968
▁Volkan	-14969
▁Profess	-14970
▁kanatlı	-14971
▁Mercedes	-14972
▁Anayasası	-14973
▁koşucuları	-14974
Bur	-14975
▁.7	-14976
▁Nest	-14977
▁page	-14978
▁biten	-14979
▁yavru	-14980
▁ortamda	-14981
▁tavsiye	-14982
▁yükseklikte	-14983
We	-14984
▁Atı	-14985
tikçe	-14986
talama	-14987
▁(2004	-14988
▁(2007	-14989
▁kâğıt	-14990
▁içecek	-14991
▁ülkedeki	-14992
▁bulunmakta	-14993
-25	-14994
hit	-14995
▁Yed	-14996
▁üvey	-14997
futbol	-14998
▁ihrac	-14999
▁yapması	-15000
▁mücadelesi	-15001
api	-15002
eon	-15003
▁Ral	-15004
▁Know	-15005
▁topu	-15006
eciler	-15007
▁eksen	-15008
▁keman	-15009
▁seçmen	-15010
▁Robinson	-15011
▁İlkokulu	-15012
▁belirlenir	-15013
▁12,	-15014
▁Ereğ	-15015
▁harc	-15016
▁Üsküp	-15017
▁Hawaii	-15018
▁mm	-15019
▁(22	-15020
▁ABC	-15021
-2003	-15022
dedir	-15023
▁1894	-15024
sızlık	-15025
▁Kings	-15026
▁Prince	-15027
▁olmaması	-15028
▁Fabrikası	-15029
oll	-15030
lands	-15031
▁Oslo	-15032
▁formayı	-15033
▁metrajlı	-15034
▁İo	-15035
untu	-15036
▁etek	-15037
▁(2006	-15038
▁Ergen	-15039
▁eşleş	-15040
▁Empire	-15041
▁Sahili	-15042
▁rüzgâr	-15043
▁turist	-15044
▁mahkeme	-15045
▁Geliştirme	-15046
▁olabileceği	-15047
▁eyaletindeki	-15048
rep	-15049
▁Isa	-15050
▁Bizim	-15051
▁Daimi	-15052
▁Daire	-15053
lerbeyi	-15054
▁Ceylan	-15055
▁arması	-15056
▁Liyakat	-15057
▁azınlık	-15058
▁kuyruklu	-15059
▁kayıtları	-15060
çin	-15061
ados	-15062
ülüğ	-15063
▁Hid	-15064
▁.000	-15065
eshire	-15066
▁Tanım	-15067
▁oksijen	-15068
▁sistemin	-15069
pes	-15070
▁alb	-15071
arruz	-15072
eksüel	-15073
▁Maxim	-15074
▁aranj	-15075
▁Dragon	-15076
▁subayı	-15077
▁Yani	-15078
▁atarak	-15079
▁Tunuslu	-15080
▁kayıtlı	-15081
▁Bayındır	-15082
▁korunması	-15083
▁imzalamıştır	-15084
ubl	-15085
▁3-	-15086
▁71	-15087
▁2-0	-15088
▁Caz	-15089
▁kron	-15090
▁1932'	-15091
▁takımların	-15092
▁uzaklaştır	-15093
▁Rossiyskaya	-15094
ious	-15095
▁160	-15096
▁ret	-15097
▁Send	-15098
▁boru	-15099
▁Touch	-15100
▁uğrat	-15101
▁anayas	-15102
ildikten	-15103
▁Akhisar	-15104
▁Laborat	-15105
▁Berkeley	-15106
▁Karanlık	-15107
▁Scottish	-15108
▁sorunlar	-15109
▁tasarımcısı	-15110
wald	-15111
▁Gonz	-15112
▁Nort	-15113
undation	-15114
▁Masters	-15115
▁büyüyen	-15116
▁santral	-15117
▁kentleri	-15118
▁başlatılan	-15119
▁şeklindeki	-15120
▁anlaşılmaktadır	-15121
Mal	-15122
----	-15123
▁Pont	-15124
▁Laura	-15125
▁Telef	-15126
▁Sözlüğü	-15127
▁analizi	-15128
▁yarattı	-15129
▁bölümüne	-15130
▁desteğiyle	-15131
book	-15132
otiv	-15133
▁Gas	-15134
▁McK	-15135
▁ömr	-15136
erald	-15137
▁Hoff	-15138
▁Erciy	-15139
▁soğut	-15140
▁(1969)	-15141
▁Carter	-15142
▁alanıdır	-15143
▁köylerin	-15144
▁dikdörtgen	-15145
▁yapılandır	-15146
lana	-15147
▁1927'	-15148
▁Anıtı	-15149
▁Civil	-15150
▁Ferdin	-15151
▁Nikola	-15152
▁Somali	-15153
▁boksör	-15154
▁hikâyesi	-15155
▁Fam	-15156
▁Lum	-15157
▁NFL	-15158
enidir	-15159
▁Grant	-15160
▁Josef	-15161
▁hâlen	-15162
▁1984),	-15163
▁patenc	-15164
▁Bologna	-15165
▁bölgesini	-15166
▁ettikleri	-15167
▁niteliğinde	-15168
▁Za	-15169
▁(23	-15170
▁Sek	-15171
aralı	-15172
▁Leic	-15173
▁Mert	-15174
▁1983:	-15175
Macaristan	-15176
▁ülkesinin	-15177
▁Alternatif	-15178
Mon	-15179
Pol	-15180
öyl	-15181
▁{|	-15182
▁29.	-15183
▁haç	-15184
▁Gizli	-15185
▁Taner	-15186
▁Bosnalı	-15187
▁Sanatçısı	-15188
.),	-15189
▁Edu	-15190
▁Asıl	-15191
▁Drak	-15192
▁Kayn	-15193
▁Ring	-15194
▁hata	-15195
apolis	-15196
▁Param	-15197
▁Cooper	-15198
▁Racing	-15199
▁Senegal	-15200
▁hakkını	-15201
▁türünün	-15202
▁türemiştir	-15203
kina	-15204
▁Kurb	-15205
▁Oluş	-15206
▁Orig	-15207
esince	-15208
▁Phone	-15209
▁Sedat	-15210
▁Sümer	-15211
▁ekmek	-15212
▁Rumeli	-15213
▁askerlik	-15214
▁açmıştır	-15215
GM	-15216
oko	-15217
▁İp	-15218
ovich	-15219
▁Coca	-15220
▁Fuku	-15221
▁César	-15222
▁Köpek	-15223
▁filme	-15224
▁kulak	-15225
▁Defter	-15226
▁tahrip	-15227
▁atmosfer	-15228
▁resimleri	-15229
▁yayınları	-15230
▁belediyeye	-15231
zat	-15232
▁Fly	-15233
yeong	-15234
▁1884	-15235
▁Pink	-15236
▁cüce	-15237
[...]
